// Auto-generated by train_model.py
// DHT20 Anomaly Detector - TFLite Micro

#pragma once

const float SCALER_TEMP_MIN = 10.0000f;
const float SCALER_TEMP_MAX = 70.0000f;
const float SCALER_HUMIDITY_MIN = 5.0000f;
const float SCALER_HUMIDITY_MAX = 95.0000f;
const float SCALER_DELTA_TEMP_MIN = -34.9700f;
const float SCALER_DELTA_TEMP_MAX = 39.4400f;
const float SCALER_DELTA_HUMIDITY_MIN = -63.6700f;
const float SCALER_DELTA_HUMIDITY_MAX = 62.4100f;

//Label mapping
// 0 = NORMAL
// 1 = ANOMALY_THRESHOLD
// 2 = ANOMALY_SPIKE

//Model weights
const unsigned int model_len = 3356;

const unsigned char model[] = {
  0x1c, 0x00, 0x00, 0x00, 0x54, 0x46, 0x4c, 0x33, 0x14, 0x00, 0x20, 0x00,
  0x1c, 0x00, 0x18, 0x00, 0x14, 0x00, 0x10, 0x00, 0x0c, 0x00, 0x00, 0x00,
  0x08, 0x00, 0x04, 0x00, 0x14, 0x00, 0x00, 0x00, 0x1c, 0x00, 0x00, 0x00,
  0x98, 0x00, 0x00, 0x00, 0xf0, 0x00, 0x00, 0x00, 0xdc, 0x05, 0x00, 0x00,
  0xec, 0x05, 0x00, 0x00, 0xb8, 0x0c, 0x00, 0x00, 0x03, 0x00, 0x00, 0x00,
  0x01, 0x00, 0x00, 0x00, 0x10, 0x00, 0x00, 0x00, 0x00, 0x00, 0x0a, 0x00,
  0x10, 0x00, 0x0c, 0x00, 0x08, 0x00, 0x04, 0x00, 0x0a, 0x00, 0x00, 0x00,
  0x0c, 0x00, 0x00, 0x00, 0x1c, 0x00, 0x00, 0x00, 0x3c, 0x00, 0x00, 0x00,
  0x0f, 0x00, 0x00, 0x00, 0x73, 0x65, 0x72, 0x76, 0x69, 0x6e, 0x67, 0x5f,
  0x64, 0x65, 0x66, 0x61, 0x75, 0x6c, 0x74, 0x00, 0x01, 0x00, 0x00, 0x00,
  0x04, 0x00, 0x00, 0x00, 0x90, 0xff, 0xff, 0xff, 0x0a, 0x00, 0x00, 0x00,
  0x04, 0x00, 0x00, 0x00, 0x08, 0x00, 0x00, 0x00, 0x6f, 0x75, 0x74, 0x70,
  0x75, 0x74, 0x5f, 0x30, 0x00, 0x00, 0x00, 0x00, 0x01, 0x00, 0x00, 0x00,
  0x04, 0x00, 0x00, 0x00, 0x0a, 0xfa, 0xff, 0xff, 0x04, 0x00, 0x00, 0x00,
  0x0c, 0x00, 0x00, 0x00, 0x6b, 0x65, 0x72, 0x61, 0x73, 0x5f, 0x74, 0x65,
  0x6e, 0x73, 0x6f, 0x72, 0x00, 0x00, 0x00, 0x00, 0x02, 0x00, 0x00, 0x00,
  0x34, 0x00, 0x00, 0x00, 0x04, 0x00, 0x00, 0x00, 0xdc, 0xff, 0xff, 0xff,
  0x0d, 0x00, 0x00, 0x00, 0x04, 0x00, 0x00, 0x00, 0x13, 0x00, 0x00, 0x00,
  0x43, 0x4f, 0x4e, 0x56, 0x45, 0x52, 0x53, 0x49, 0x4f, 0x4e, 0x5f, 0x4d,
  0x45, 0x54, 0x41, 0x44, 0x41, 0x54, 0x41, 0x00, 0x08, 0x00, 0x0c, 0x00,
  0x08, 0x00, 0x04, 0x00, 0x08, 0x00, 0x00, 0x00, 0x0c, 0x00, 0x00, 0x00,
  0x04, 0x00, 0x00, 0x00, 0x13, 0x00, 0x00, 0x00, 0x6d, 0x69, 0x6e, 0x5f,
  0x72, 0x75, 0x6e, 0x74, 0x69, 0x6d, 0x65, 0x5f, 0x76, 0x65, 0x72, 0x73,
  0x69, 0x6f, 0x6e, 0x00, 0x0e, 0x00, 0x00, 0x00, 0xe8, 0x04, 0x00, 0x00,
  0xe0, 0x04, 0x00, 0x00, 0xb0, 0x04, 0x00, 0x00, 0x94, 0x04, 0x00, 0x00,
  0x24, 0x04, 0x00, 0x00, 0x14, 0x02, 0x00, 0x00, 0x04, 0x01, 0x00, 0x00,
  0xb4, 0x00, 0x00, 0x00, 0xac, 0x00, 0x00, 0x00, 0xa4, 0x00, 0x00, 0x00,
  0x9c, 0x00, 0x00, 0x00, 0x94, 0x00, 0x00, 0x00, 0x74, 0x00, 0x00, 0x00,
  0x04, 0x00, 0x00, 0x00, 0xbe, 0xfa, 0xff, 0xff, 0x04, 0x00, 0x00, 0x00,
  0x60, 0x00, 0x00, 0x00, 0x0c, 0x00, 0x00, 0x00, 0x08, 0x00, 0x0e, 0x00,
  0x08, 0x00, 0x04, 0x00, 0x08, 0x00, 0x00, 0x00, 0x10, 0x00, 0x00, 0x00,
  0x28, 0x00, 0x00, 0x00, 0x00, 0x00, 0x06, 0x00, 0x08, 0x00, 0x04, 0x00,
  0x06, 0x00, 0x00, 0x00, 0x04, 0x00, 0x00, 0x00, 0x01, 0x00, 0x00, 0x00,
  0xea, 0x03, 0x00, 0x00, 0x0c, 0x00, 0x18, 0x00, 0x14, 0x00, 0x10, 0x00,
  0x0c, 0x00, 0x04, 0x00, 0x0c, 0x00, 0x00, 0x00, 0x27, 0xe1, 0x10, 0x95,
  0xf2, 0x0f, 0x12, 0x00, 0x02, 0x00, 0x00, 0x00, 0x02, 0x00, 0x00, 0x00,
  0x04, 0x00, 0x00, 0x00, 0x06, 0x00, 0x00, 0x00, 0x32, 0x2e, 0x32, 0x31,
  0x2e, 0x30, 0x00, 0x00, 0x2a, 0xfb, 0xff, 0xff, 0x04, 0x00, 0x00, 0x00,
  0x10, 0x00, 0x00, 0x00, 0x31, 0x2e, 0x35, 0x2e, 0x30, 0x00, 0x00, 0x00,
  0x00, 0x00, 0x00, 0x00, 0x00, 0x00, 0x00, 0x00, 0x28, 0xf5, 0xff, 0xff,
  0x2c, 0xf5, 0xff, 0xff, 0x30, 0xf5, 0xff, 0xff, 0x34, 0xf5, 0xff, 0xff,
  0x56, 0xfb, 0xff, 0xff, 0x04, 0x00, 0x00, 0x00, 0x40, 0x00, 0x00, 0x00,
  0xa9, 0xb9, 0xa0, 0xbc, 0xc6, 0x3c, 0x16, 0xbe, 0x4b, 0x92, 0x2b, 0x3e,
  0xc5, 0x1a, 0xa2, 0x3d, 0xc2, 0xa5, 0xe3, 0x3e, 0xe4, 0xd7, 0x37, 0xbe,
  0xce, 0xe8, 0x3b, 0x3e, 0x77, 0x0b, 0xd7, 0x3e, 0x33, 0x4c, 0x95, 0x3c,
  0x22, 0x15, 0x09, 0xbf, 0x57, 0xd0, 0x50, 0x3e, 0x66, 0xbe, 0xe0, 0x3e,
  0xc2, 0x3b, 0xc4, 0x3d, 0xb1, 0xd6, 0x3b, 0x3e, 0x36, 0xa9, 0x25, 0x3e,
  0x00, 0x00, 0x00, 0x00, 0xa2, 0xfb, 0xff, 0xff, 0x04, 0x00, 0x00, 0x00,
  0x00, 0x01, 0x00, 0x00, 0x69, 0x42, 0xd7, 0x3e, 0xcb, 0x5f, 0x01, 0x3f,
  0xe2, 0xaa, 0x18, 0x3e, 0x9b, 0x29, 0x85, 0x3f, 0xe9, 0x56, 0xee, 0x3e,
  0x35, 0xf5, 0x3a, 0xbf, 0x4b, 0x79, 0x12, 0xbf, 0xf5, 0x6c, 0x52, 0x3e,
  0x20, 0xae, 0x53, 0x3f, 0xa5, 0x2d, 0x02, 0xbf, 0xd8, 0x91, 0x39, 0xbf,
  0x96, 0xc8, 0x2a, 0xbc, 0x5e, 0x3a, 0xaf, 0xbf, 0xab, 0x32, 0x23, 0x3f,
  0x0b, 0x7b, 0xdd, 0x3e, 0x3c, 0xda, 0x1a, 0x3e, 0x3b, 0x03, 0x01, 0xbe,
  0x9e, 0xa3, 0xe1, 0xbf, 0xb2, 0x96, 0xe0, 0x3e, 0xbe, 0x2f, 0x32, 0x3e,
  0x38, 0xa8, 0x77, 0x3e, 0x02, 0xa6, 0x24, 0x3f, 0x2c, 0xe5, 0x66, 0xbe,
  0x48, 0xc7, 0x12, 0x3f, 0x84, 0x17, 0x37, 0x3f, 0x28, 0xee, 0x61, 0x3e,
  0xde, 0xdc, 0x03, 0x3f, 0x7a, 0x4e, 0x39, 0x3f, 0x5a, 0x56, 0x83, 0xbf,
  0x5e, 0xd7, 0xab, 0x3e, 0x80, 0xc1, 0x39, 0x3f, 0xec, 0x7f, 0x02, 0xbf,
  0xfd, 0xd7, 0x0f, 0x3f, 0xfd, 0xbc, 0x5b, 0xbf, 0x90, 0x54, 0x97, 0x3e,
  0x2d, 0x86, 0x9b, 0xbd, 0x1b, 0x41, 0xa9, 0x3f, 0x79, 0xd1, 0xe5, 0x3e,
  0x27, 0x07, 0xaa, 0x3e, 0x61, 0x90, 0x47, 0xbf, 0xba, 0xe4, 0xc7, 0x3b,
  0xf2, 0xad, 0xaa, 0x3e, 0xb4, 0x87, 0xa9, 0x3e, 0x8a, 0xc4, 0x94, 0x3e,
  0x1f, 0x44, 0x14, 0x3f, 0x7e, 0x5a, 0x14, 0xbb, 0x3f, 0xf6, 0x23, 0x3f,
  0x8e, 0x39, 0x15, 0xbf, 0xdd, 0xd8, 0x24, 0x3f, 0xb6, 0xdb, 0x3e, 0xbf,
  0x75, 0x35, 0x87, 0x3e, 0x93, 0xd3, 0x67, 0x3e, 0xc5, 0x79, 0xb8, 0xbe,
  0x43, 0x32, 0x71, 0x3f, 0x25, 0x81, 0x64, 0x3e, 0xd5, 0x4a, 0xf7, 0xbd,
  0x69, 0x4a, 0xd2, 0x3e, 0xf0, 0xc7, 0x2e, 0x3f, 0xc9, 0x09, 0xa4, 0x3e,
  0x09, 0x6d, 0x19, 0x3e, 0x15, 0x2e, 0xa3, 0xbe, 0x32, 0x0a, 0xc4, 0xbe,
  0x30, 0x64, 0xf1, 0x3d, 0x03, 0x84, 0xd9, 0xbe, 0xae, 0xfc, 0xff, 0xff,
  0x04, 0x00, 0x00, 0x00, 0x00, 0x02, 0x00, 0x00, 0x44, 0x59, 0x9d, 0x3e,
  0x9c, 0x79, 0x94, 0xbe, 0xe5, 0xd9, 0x39, 0x3f, 0x22, 0x77, 0x70, 0x3f,
  0xe8, 0x83, 0xce, 0x3f, 0x26, 0xf0, 0x2c, 0x3f, 0xf2, 0x56, 0xc9, 0xbc,
  0xfb, 0x19, 0xad, 0xbf, 0x43, 0xd8, 0x69, 0x3f, 0x0a, 0x13, 0x69, 0x3f,
  0x95, 0x6c, 0xbf, 0xbd, 0xe5, 0x59, 0x1a, 0xbf, 0x58, 0x47, 0xcd, 0x3e,
  0xbf, 0x5e, 0x8e, 0xbe, 0x82, 0xc5, 0x73, 0x3e, 0x50, 0xb7, 0xeb, 0x3d,
  0x0f, 0xf2, 0xac, 0x3d, 0x87, 0x2d, 0xeb, 0xbe, 0x9a, 0x80, 0x9d, 0x3f,
  0xdf, 0x06, 0x3d, 0x3f, 0xf0, 0x97, 0x92, 0x3f, 0x03, 0xc8, 0xe5, 0x3d,
  0xc1, 0x95, 0x95, 0x3e, 0x57, 0x51, 0xad, 0xbf, 0xf2, 0xb2, 0x99, 0x3f,
  0x9d, 0x9f, 0xd2, 0x3f, 0xee, 0x93, 0xb0, 0x3e, 0x03, 0x5b, 0x3e, 0x3e,
  0xd1, 0x87, 0xe6, 0x3e, 0x8f, 0x27, 0x9e, 0xbe, 0xeb, 0x52, 0xfd, 0xbd,
  0x00, 0xcc, 0x5b, 0xbb, 0xec, 0x72, 0x32, 0x3e, 0x5d, 0xd2, 0x67, 0x3e,
  0x6e, 0xc4, 0xb2, 0xbf, 0xbb, 0xa5, 0x89, 0xbf, 0x8a, 0x91, 0x07, 0xc0,
  0x30, 0x07, 0x59, 0x3b, 0x45, 0x75, 0xce, 0x3e, 0x51, 0x9e, 0x84, 0x3e,
  0x8f, 0x3a, 0xbe, 0xbf, 0x17, 0x7c, 0x14, 0xc0, 0x1d, 0x89, 0x23, 0x3f,
  0xc7, 0xdf, 0x57, 0x3f, 0x94, 0xf5, 0x34, 0xbe, 0x15, 0xb7, 0xee, 0x3e,
  0xf2, 0xdc, 0xa4, 0x3e, 0x00, 0xb2, 0x2e, 0x3b, 0x74, 0x23, 0x06, 0x3c,
  0x67, 0x60, 0xc8, 0x3e, 0x33, 0xd0, 0xfa, 0xbc, 0xd5, 0xdd, 0x09, 0x40,
  0x71, 0x87, 0xf8, 0x3e, 0x6f, 0xf8, 0xdf, 0x3e, 0xf6, 0x47, 0xaf, 0xbe,
  0x19, 0x0b, 0xbc, 0x3f, 0x95, 0x00, 0xb6, 0xbe, 0x31, 0xd6, 0xc3, 0x3f,
  0x02, 0x3d, 0xba, 0x3b, 0x03, 0x9e, 0x18, 0x3d, 0xeb, 0x2f, 0xdf, 0xbe,
  0xe8, 0xb1, 0xcb, 0x3e, 0xe9, 0x0b, 0x2d, 0x3e, 0x80, 0x32, 0xf3, 0xbc,
  0x73, 0xfa, 0x09, 0xbf, 0xd8, 0x0a, 0x99, 0x3e, 0x0c, 0xb4, 0x9a, 0xbe,
  0x26, 0x62, 0xd5, 0x3e, 0xab, 0x88, 0xc2, 0x3e, 0x9e, 0x5b, 0xa4, 0xbe,
  0x48, 0xca, 0xb2, 0xbe, 0x6e, 0x15, 0x8e, 0x3c, 0xfe, 0x6a, 0xed, 0xbe,
  0x84, 0x5a, 0xb1, 0xbe, 0x7f, 0x40, 0x77, 0x3d, 0x1c, 0x52, 0x87, 0x3e,
  0xc2, 0x1e, 0x3a, 0x3e, 0xde, 0x04, 0xad, 0xbe, 0x91, 0x58, 0x28, 0xbe,
  0xc0, 0x96, 0x3a, 0x3e, 0x10, 0xa1, 0xf8, 0xbd, 0x40, 0x24, 0x79, 0xbd,
  0x38, 0x8d, 0xb8, 0x3e, 0x50, 0x7d, 0x63, 0x3e, 0x10, 0x42, 0x9b, 0x3d,
  0x44, 0xd1, 0xd8, 0xbe, 0xec, 0xc9, 0xa0, 0xbe, 0x74, 0xa3, 0xbb, 0xbe,
  0xc4, 0x29, 0xd0, 0xbe, 0x00, 0x40, 0xde, 0xb9, 0x28, 0xd6, 0x81, 0x3e,
  0xa8, 0x76, 0xa5, 0xbe, 0x00, 0xd4, 0x0e, 0xbd, 0x24, 0x8b, 0x98, 0xbe,
  0xcc, 0x13, 0xa3, 0x3e, 0x6c, 0x82, 0xb8, 0x3e, 0x35, 0x7f, 0x6c, 0xbe,
  0xc7, 0xa4, 0xc0, 0x3e, 0x68, 0x4f, 0x75, 0x3e, 0x28, 0x94, 0x99, 0xbe,
  0x1d, 0x9d, 0x0c, 0x3e, 0xff, 0x48, 0xe9, 0xbb, 0xa3, 0x32, 0x18, 0x3e,
  0x08, 0x0f, 0xe3, 0xbe, 0xbd, 0xe4, 0xa6, 0xbe, 0x74, 0xaa, 0x02, 0xbe,
  0x68, 0x24, 0x2e, 0x3e, 0x6b, 0xba, 0xf1, 0xbe, 0x60, 0x98, 0x8c, 0xbe,
  0x9c, 0xc2, 0xa9, 0xbe, 0x8e, 0x56, 0xa7, 0x3e, 0x40, 0xa1, 0x9b, 0xbc,
  0x54, 0x55, 0xbb, 0xbe, 0xc0, 0x03, 0x69, 0x3e, 0x40, 0xef, 0xbd, 0xbc,
  0x80, 0x93, 0x4a, 0xbe, 0x10, 0x1e, 0x5e, 0xbe, 0x88, 0xa8, 0xac, 0xbe,
  0x00, 0x2c, 0xde, 0xba, 0x00, 0x01, 0xcd, 0xbd, 0x8c, 0xf8, 0x86, 0xbe,
  0x1c, 0x83, 0xb8, 0xbe, 0x08, 0xb3, 0xcd, 0x3e, 0x40, 0xbd, 0x27, 0xbe,
  0xa0, 0xcf, 0xae, 0xbe, 0xd8, 0x21, 0x70, 0xbe, 0x98, 0x20, 0x7a, 0xbe,
  0x90, 0x32, 0x05, 0x3e, 0xba, 0xfe, 0xff, 0xff, 0x04, 0x00, 0x00, 0x00,
  0x60, 0x00, 0x00, 0x00, 0xd8, 0x43, 0xdf, 0xbf, 0xa3, 0xb5, 0xee, 0xbf,
  0x93, 0x51, 0x50, 0x3f, 0xde, 0x71, 0xcd, 0xbe, 0x41, 0x55, 0x6a, 0x3e,
  0xd1, 0xe3, 0x17, 0x3f, 0x05, 0xfd, 0x12, 0xbf, 0xe0, 0x3a, 0x16, 0xbe,
  0x36, 0xfa, 0x91, 0x3f, 0x0a, 0x82, 0x2a, 0x3f, 0xb5, 0x5e, 0x08, 0xbf,
  0x88, 0x46, 0xce, 0xbf, 0x9f, 0xe7, 0xc7, 0x3e, 0x6c, 0x1a, 0x37, 0xbf,
  0xb4, 0x46, 0x28, 0xbf, 0xe8, 0x21, 0x83, 0xbd, 0x4b, 0xc2, 0x29, 0x3f,
  0xc2, 0x67, 0xdc, 0x3e, 0x83, 0x7e, 0x66, 0xbf, 0xa2, 0x09, 0xa8, 0x3f,
  0x6a, 0x7a, 0x3f, 0x3e, 0xca, 0x45, 0x9b, 0xbe, 0x92, 0x07, 0xe9, 0x3e,
  0x02, 0x9d, 0xf6, 0xbe, 0x26, 0xff, 0xff, 0xff, 0x04, 0x00, 0x00, 0x00,
  0x0c, 0x00, 0x00, 0x00, 0x59, 0x7b, 0xa9, 0x3e, 0xe9, 0xe6, 0x21, 0xbe,
  0xe6, 0x41, 0x94, 0xbe, 0x3e, 0xff, 0xff, 0xff, 0x04, 0x00, 0x00, 0x00,
  0x20, 0x00, 0x00, 0x00, 0x1a, 0x7c, 0x66, 0xbc, 0x5b, 0x62, 0x47, 0xbe,
  0xec, 0xab, 0x06, 0x3f, 0x80, 0x6a, 0xd2, 0xbd, 0xfc, 0x95, 0x43, 0xbd,
  0x00, 0x00, 0x00, 0x00, 0x6b, 0x48, 0x75, 0xbc, 0x00, 0x00, 0x00, 0x00,
  0x4c, 0xf9, 0xff, 0xff, 0x50, 0xf9, 0xff, 0xff, 0x0f, 0x00, 0x00, 0x00,
  0x4d, 0x4c, 0x49, 0x52, 0x20, 0x43, 0x6f, 0x6e, 0x76, 0x65, 0x72, 0x74,
  0x65, 0x64, 0x2e, 0x00, 0x01, 0x00, 0x00, 0x00, 0x14, 0x00, 0x00, 0x00,
  0x00, 0x00, 0x0e, 0x00, 0x18, 0x00, 0x14, 0x00, 0x10, 0x00, 0x0c, 0x00,
  0x08, 0x00, 0x04, 0x00, 0x0e, 0x00, 0x00, 0x00, 0x14, 0x00, 0x00, 0x00,
  0x1c, 0x00, 0x00, 0x00, 0x34, 0x01, 0x00, 0x00, 0x38, 0x01, 0x00, 0x00,
  0x3c, 0x01, 0x00, 0x00, 0x04, 0x00, 0x00, 0x00, 0x6d, 0x61, 0x69, 0x6e,
  0x00, 0x00, 0x00, 0x00, 0x04, 0x00, 0x00, 0x00, 0xdc, 0x00, 0x00, 0x00,
  0x94, 0x00, 0x00, 0x00, 0x50, 0x00, 0x00, 0x00, 0x14, 0x00, 0x00, 0x00,
  0x00, 0x00, 0x0e, 0x00, 0x1a, 0x00, 0x14, 0x00, 0x10, 0x00, 0x0c, 0x00,
  0x0b, 0x00, 0x04, 0x00, 0x0e, 0x00, 0x00, 0x00, 0x1c, 0x00, 0x00, 0x00,
  0x00, 0x00, 0x00, 0x09, 0x1c, 0x00, 0x00, 0x00, 0x20, 0x00, 0x00, 0x00,
  0x01, 0x00, 0x00, 0x00, 0x00, 0x00, 0x06, 0x00, 0x08, 0x00, 0x04, 0x00,
  0x06, 0x00, 0x00, 0x00, 0x00, 0x00, 0x80, 0x3f, 0x01, 0x00, 0x00, 0x00,
  0x0a, 0x00, 0x00, 0x00, 0x01, 0x00, 0x00, 0x00, 0x09, 0x00, 0x00, 0x00,
  0xce, 0xff, 0xff, 0xff, 0x10, 0x00, 0x00, 0x00, 0x00, 0x00, 0x00, 0x08,
  0x0c, 0x00, 0x00, 0x00, 0x10, 0x00, 0x00, 0x00, 0x14, 0xfa, 0xff, 0xff,
  0x01, 0x00, 0x00, 0x00, 0x09, 0x00, 0x00, 0x00, 0x03, 0x00, 0x00, 0x00,
  0x08, 0x00, 0x00, 0x00, 0x03, 0x00, 0x00, 0x00, 0x02, 0x00, 0x00, 0x00,
  0x00, 0x00, 0x0e, 0x00, 0x14, 0x00, 0x00, 0x00, 0x10, 0x00, 0x0c, 0x00,
  0x0b, 0x00, 0x04, 0x00, 0x0e, 0x00, 0x00, 0x00, 0x10, 0x00, 0x00, 0x00,
  0x00, 0x00, 0x00, 0x08, 0x10, 0x00, 0x00, 0x00, 0x14, 0x00, 0x00, 0x00,
  0xba, 0xff, 0xff, 0xff, 0x00, 0x00, 0x00, 0x01, 0x01, 0x00, 0x00, 0x00,
  0x08, 0x00, 0x00, 0x00, 0x03, 0x00, 0x00, 0x00, 0x07, 0x00, 0x00, 0x00,
  0x04, 0x00, 0x00, 0x00, 0x01, 0x00, 0x00, 0x00, 0x00, 0x00, 0x0e, 0x00,
  0x16, 0x00, 0x00, 0x00, 0x10, 0x00, 0x0c, 0x00, 0x0b, 0x00, 0x04, 0x00,
  0x0e, 0x00, 0x00, 0x00, 0x18, 0x00, 0x00, 0x00, 0x00, 0x00, 0x00, 0x08,
  0x18, 0x00, 0x00, 0x00, 0x1c, 0x00, 0x00, 0x00, 0x00, 0x00, 0x06, 0x00,
  0x08, 0x00, 0x07, 0x00, 0x06, 0x00, 0x00, 0x00, 0x00, 0x00, 0x00, 0x01,
  0x01, 0x00, 0x00, 0x00, 0x07, 0x00, 0x00, 0x00, 0x03, 0x00, 0x00, 0x00,
  0x00, 0x00, 0x00, 0x00, 0x05, 0x00, 0x00, 0x00, 0x06, 0x00, 0x00, 0x00,
  0x01, 0x00, 0x00, 0x00, 0x0a, 0x00, 0x00, 0x00, 0x01, 0x00, 0x00, 0x00,
  0x00, 0x00, 0x00, 0x00, 0x0b, 0x00, 0x00, 0x00, 0x04, 0x05, 0x00, 0x00,
  0x6c, 0x04, 0x00, 0x00, 0xfc, 0x03, 0x00, 0x00, 0xa0, 0x03, 0x00, 0x00,
  0x44, 0x03, 0x00, 0x00, 0xec, 0x02, 0x00, 0x00, 0x70, 0x02, 0x00, 0x00,
  0xb8, 0x01, 0x00, 0x00, 0xf8, 0x00, 0x00, 0x00, 0x60, 0x00, 0x00, 0x00,
  0x04, 0x00, 0x00, 0x00, 0x3e, 0xfb, 0xff, 0xff, 0x00, 0x00, 0x00, 0x01,
  0x14, 0x00, 0x00, 0x00, 0x1c, 0x00, 0x00, 0x00, 0x1c, 0x00, 0x00, 0x00,
  0x0b, 0x00, 0x00, 0x00, 0x34, 0x00, 0x00, 0x00, 0x02, 0x00, 0x00, 0x00,
  0xff, 0xff, 0xff, 0xff, 0x03, 0x00, 0x00, 0x00, 0x28, 0xfb, 0xff, 0xff,
  0x1b, 0x00, 0x00, 0x00, 0x53, 0x74, 0x61, 0x74, 0x65, 0x66, 0x75, 0x6c,
  0x50, 0x61, 0x72, 0x74, 0x69, 0x74, 0x69, 0x6f, 0x6e, 0x65, 0x64, 0x43,
  0x61, 0x6c, 0x6c, 0x5f, 0x31, 0x3a, 0x30, 0x00, 0x02, 0x00, 0x00, 0x00,
  0x01, 0x00, 0x00, 0x00, 0x03, 0x00, 0x00, 0x00, 0x96, 0xfb, 0xff, 0xff,
  0x00, 0x00, 0x00, 0x01, 0x14, 0x00, 0x00, 0x00, 0x1c, 0x00, 0x00, 0x00,
  0x1c, 0x00, 0x00, 0x00, 0x0a, 0x00, 0x00, 0x00, 0x70, 0x00, 0x00, 0x00,
  0x02, 0x00, 0x00, 0x00, 0xff, 0xff, 0xff, 0xff, 0x03, 0x00, 0x00, 0x00,
  0x80, 0xfb, 0xff, 0xff, 0x54, 0x00, 0x00, 0x00, 0x64, 0x68, 0x74, 0x32,
  0x30, 0x5f, 0x61, 0x6e, 0x6f, 0x6d, 0x61, 0x6c, 0x79, 0x5f, 0x64, 0x65,
  0x74, 0x65, 0x63, 0x74, 0x6f, 0x72, 0x5f, 0x31, 0x2f, 0x64, 0x65, 0x6e,
  0x73, 0x65, 0x5f, 0x32, 0x5f, 0x31, 0x2f, 0x4d, 0x61, 0x74, 0x4d, 0x75,
  0x6c, 0x3b, 0x64, 0x68, 0x74, 0x32, 0x30, 0x5f, 0x61, 0x6e, 0x6f, 0x6d,
  0x61, 0x6c, 0x79, 0x5f, 0x64, 0x65, 0x74, 0x65, 0x63, 0x74, 0x6f, 0x72,
  0x5f, 0x31, 0x2f, 0x64, 0x65, 0x6e, 0x73, 0x65, 0x5f, 0x32, 0x5f, 0x31,
  0x2f, 0x42, 0x69, 0x61, 0x73, 0x41, 0x64, 0x64, 0x00, 0x00, 0x00, 0x00,
  0x02, 0x00, 0x00, 0x00, 0x01, 0x00, 0x00, 0x00, 0x03, 0x00, 0x00, 0x00,
  0x2a, 0xfc, 0xff, 0xff, 0x00, 0x00, 0x00, 0x01, 0x14, 0x00, 0x00, 0x00,
  0x1c, 0x00, 0x00, 0x00, 0x1c, 0x00, 0x00, 0x00, 0x09, 0x00, 0x00, 0x00,
  0x98, 0x00, 0x00, 0x00, 0x02, 0x00, 0x00, 0x00, 0xff, 0xff, 0xff, 0xff,
  0x08, 0x00, 0x00, 0x00, 0x14, 0xfc, 0xff, 0xff, 0x7c, 0x00, 0x00, 0x00,
  0x64, 0x68, 0x74, 0x32, 0x30, 0x5f, 0x61, 0x6e, 0x6f, 0x6d, 0x61, 0x6c,
  0x79, 0x5f, 0x64, 0x65, 0x74, 0x65, 0x63, 0x74, 0x6f, 0x72, 0x5f, 0x31,
  0x2f, 0x64, 0x65, 0x6e, 0x73, 0x65, 0x5f, 0x31, 0x5f, 0x32, 0x2f, 0x4d,
  0x61, 0x74, 0x4d, 0x75, 0x6c, 0x3b, 0x64, 0x68, 0x74, 0x32, 0x30, 0x5f,
  0x61, 0x6e, 0x6f, 0x6d, 0x61, 0x6c, 0x79, 0x5f, 0x64, 0x65, 0x74, 0x65,
  0x63, 0x74, 0x6f, 0x72, 0x5f, 0x31, 0x2f, 0x64, 0x65, 0x6e, 0x73, 0x65,
  0x5f, 0x31, 0x5f, 0x32, 0x2f, 0x52, 0x65, 0x6c, 0x75, 0x3b, 0x64, 0x68,
  0x74, 0x32, 0x30, 0x5f, 0x61, 0x6e, 0x6f, 0x6d, 0x61, 0x6c, 0x79, 0x5f,
  0x64, 0x65, 0x74, 0x65, 0x63, 0x74, 0x6f, 0x72, 0x5f, 0x31, 0x2f, 0x64,
  0x65, 0x6e, 0x73, 0x65, 0x5f, 0x31, 0x5f, 0x32, 0x2f, 0x42, 0x69, 0x61,
  0x73, 0x41, 0x64, 0x64, 0x00, 0x00, 0x00, 0x00, 0x02, 0x00, 0x00, 0x00,
  0x01, 0x00, 0x00, 0x00, 0x08, 0x00, 0x00, 0x00, 0xe6, 0xfc, 0xff, 0xff,
  0x00, 0x00, 0x00, 0x01, 0x14, 0x00, 0x00, 0x00, 0x1c, 0x00, 0x00, 0x00,
  0x1c, 0x00, 0x00, 0x00, 0x08, 0x00, 0x00, 0x00, 0x90, 0x00, 0x00, 0x00,
  0x02, 0x00, 0x00, 0x00, 0xff, 0xff, 0xff, 0xff, 0x10, 0x00, 0x00, 0x00,
  0xd0, 0xfc, 0xff, 0xff, 0x76, 0x00, 0x00, 0x00, 0x64, 0x68, 0x74, 0x32,
  0x30, 0x5f, 0x61, 0x6e, 0x6f, 0x6d, 0x61, 0x6c, 0x79, 0x5f, 0x64, 0x65,
  0x74, 0x65, 0x63, 0x74, 0x6f, 0x72, 0x5f, 0x31, 0x2f, 0x64, 0x65, 0x6e,
  0x73, 0x65, 0x5f, 0x31, 0x2f, 0x4d, 0x61, 0x74, 0x4d, 0x75, 0x6c, 0x3b,
  0x64, 0x68, 0x74, 0x32, 0x30, 0x5f, 0x61, 0x6e, 0x6f, 0x6d, 0x61, 0x6c,
  0x79, 0x5f, 0x64, 0x65, 0x74, 0x65, 0x63, 0x74, 0x6f, 0x72, 0x5f, 0x31,
  0x2f, 0x64, 0x65, 0x6e, 0x73, 0x65, 0x5f, 0x31, 0x2f, 0x52, 0x65, 0x6c,
  0x75, 0x3b, 0x64, 0x68, 0x74, 0x32, 0x30, 0x5f, 0x61, 0x6e, 0x6f, 0x6d,
  0x61, 0x6c, 0x79, 0x5f, 0x64, 0x65, 0x74, 0x65, 0x63, 0x74, 0x6f, 0x72,
  0x5f, 0x31, 0x2f, 0x64, 0x65, 0x6e, 0x73, 0x65, 0x5f, 0x31, 0x2f, 0x42,
  0x69, 0x61, 0x73, 0x41, 0x64, 0x64, 0x00, 0x00, 0x02, 0x00, 0x00, 0x00,
  0x01, 0x00, 0x00, 0x00, 0x10, 0x00, 0x00, 0x00, 0x2e, 0xfe, 0xff, 0xff,
  0x00, 0x00, 0x00, 0x01, 0x10, 0x00, 0x00, 0x00, 0x10, 0x00, 0x00, 0x00,
  0x07, 0x00, 0x00, 0x00, 0x5c, 0x00, 0x00, 0x00, 0x74, 0xfd, 0xff, 0xff,
  0x4e, 0x00, 0x00, 0x00, 0x64, 0x68, 0x74, 0x32, 0x30, 0x5f, 0x61, 0x6e,
  0x6f, 0x6d, 0x61, 0x6c, 0x79, 0x5f, 0x64, 0x65, 0x74, 0x65, 0x63, 0x74,
  0x6f, 0x72, 0x5f, 0x31, 0x2f, 0x64, 0x65, 0x6e, 0x73, 0x65, 0x5f, 0x31,
  0x2f, 0x52, 0x65, 0x6c, 0x75, 0x3b, 0x64, 0x68, 0x74, 0x32, 0x30, 0x5f,
  0x61, 0x6e, 0x6f, 0x6d, 0x61, 0x6c, 0x79, 0x5f, 0x64, 0x65, 0x74, 0x65,
  0x63, 0x74, 0x6f, 0x72, 0x5f, 0x31, 0x2f, 0x64, 0x65, 0x6e, 0x73, 0x65,
  0x5f, 0x31, 0x2f, 0x42, 0x69, 0x61, 0x73, 0x41, 0x64, 0x64, 0x00, 0x00,
  0x01, 0x00, 0x00, 0x00, 0x10, 0x00, 0x00, 0x00, 0xa6, 0xfe, 0xff, 0xff,
  0x00, 0x00, 0x00, 0x01, 0x10, 0x00, 0x00, 0x00, 0x10, 0x00, 0x00, 0x00,
  0x06, 0x00, 0x00, 0x00, 0x34, 0x00, 0x00, 0x00, 0xec, 0xfd, 0xff, 0xff,
  0x27, 0x00, 0x00, 0x00, 0x64, 0x68, 0x74, 0x32, 0x30, 0x5f, 0x61, 0x6e,
  0x6f, 0x6d, 0x61, 0x6c, 0x79, 0x5f, 0x64, 0x65, 0x74, 0x65, 0x63, 0x74,
  0x6f, 0x72, 0x5f, 0x31, 0x2f, 0x64, 0x65, 0x6e, 0x73, 0x65, 0x5f, 0x31,
  0x2f, 0x4d, 0x61, 0x74, 0x4d, 0x75, 0x6c, 0x00, 0x02, 0x00, 0x00, 0x00,
  0x10, 0x00, 0x00, 0x00, 0x04, 0x00, 0x00, 0x00, 0xfa, 0xfe, 0xff, 0xff,
  0x00, 0x00, 0x00, 0x01, 0x10, 0x00, 0x00, 0x00, 0x10, 0x00, 0x00, 0x00,
  0x05, 0x00, 0x00, 0x00, 0x38, 0x00, 0x00, 0x00, 0x40, 0xfe, 0xff, 0xff,
  0x29, 0x00, 0x00, 0x00, 0x64, 0x68, 0x74, 0x32, 0x30, 0x5f, 0x61, 0x6e,
  0x6f, 0x6d, 0x61, 0x6c, 0x79, 0x5f, 0x64, 0x65, 0x74, 0x65, 0x63, 0x74,
  0x6f, 0x72, 0x5f, 0x31, 0x2f, 0x64, 0x65, 0x6e, 0x73, 0x65, 0x5f, 0x31,
  0x5f, 0x32, 0x2f, 0x4d, 0x61, 0x74, 0x4d, 0x75, 0x6c, 0x00, 0x00, 0x00,
  0x02, 0x00, 0x00, 0x00, 0x08, 0x00, 0x00, 0x00, 0x10, 0x00, 0x00, 0x00,
  0x52, 0xff, 0xff, 0xff, 0x00, 0x00, 0x00, 0x01, 0x10, 0x00, 0x00, 0x00,
  0x10, 0x00, 0x00, 0x00, 0x04, 0x00, 0x00, 0x00, 0x38, 0x00, 0x00, 0x00,
  0x98, 0xfe, 0xff, 0xff, 0x29, 0x00, 0x00, 0x00, 0x64, 0x68, 0x74, 0x32,
  0x30, 0x5f, 0x61, 0x6e, 0x6f, 0x6d, 0x61, 0x6c, 0x79, 0x5f, 0x64, 0x65,
  0x74, 0x65, 0x63, 0x74, 0x6f, 0x72, 0x5f, 0x31, 0x2f, 0x64, 0x65, 0x6e,
  0x73, 0x65, 0x5f, 0x32, 0x5f, 0x31, 0x2f, 0x4d, 0x61, 0x74, 0x4d, 0x75,
  0x6c, 0x00, 0x00, 0x00, 0x02, 0x00, 0x00, 0x00, 0x03, 0x00, 0x00, 0x00,
  0x08, 0x00, 0x00, 0x00, 0xaa, 0xff, 0xff, 0xff, 0x00, 0x00, 0x00, 0x01,
  0x10, 0x00, 0x00, 0x00, 0x10, 0x00, 0x00, 0x00, 0x03, 0x00, 0x00, 0x00,
  0x38, 0x00, 0x00, 0x00, 0xf0, 0xfe, 0xff, 0xff, 0x2a, 0x00, 0x00, 0x00,
  0x64, 0x68, 0x74, 0x32, 0x30, 0x5f, 0x61, 0x6e, 0x6f, 0x6d, 0x61, 0x6c,
  0x79, 0x5f, 0x64, 0x65, 0x74, 0x65, 0x63, 0x74, 0x6f, 0x72, 0x5f, 0x31,
  0x2f, 0x64, 0x65, 0x6e, 0x73, 0x65, 0x5f, 0x32, 0x5f, 0x31, 0x2f, 0x42,
  0x69, 0x61, 0x73, 0x41, 0x64, 0x64, 0x00, 0x00, 0x01, 0x00, 0x00, 0x00,
  0x03, 0x00, 0x00, 0x00, 0x00, 0x00, 0x16, 0x00, 0x18, 0x00, 0x14, 0x00,
  0x00, 0x00, 0x10, 0x00, 0x0c, 0x00, 0x08, 0x00, 0x00, 0x00, 0x00, 0x00,
  0x00, 0x00, 0x07, 0x00, 0x16, 0x00, 0x00, 0x00, 0x00, 0x00, 0x00, 0x01,
  0x10, 0x00, 0x00, 0x00, 0x10, 0x00, 0x00, 0x00, 0x02, 0x00, 0x00, 0x00,
  0x60, 0x00, 0x00, 0x00, 0x5c, 0xff, 0xff, 0xff, 0x52, 0x00, 0x00, 0x00,
  0x64, 0x68, 0x74, 0x32, 0x30, 0x5f, 0x61, 0x6e, 0x6f, 0x6d, 0x61, 0x6c,
  0x79, 0x5f, 0x64, 0x65, 0x74, 0x65, 0x63, 0x74, 0x6f, 0x72, 0x5f, 0x31,
  0x2f, 0x64, 0x65, 0x6e, 0x73, 0x65, 0x5f, 0x31, 0x5f, 0x32, 0x2f, 0x52,
  0x65, 0x6c, 0x75, 0x3b, 0x64, 0x68, 0x74, 0x32, 0x30, 0x5f, 0x61, 0x6e,
  0x6f, 0x6d, 0x61, 0x6c, 0x79, 0x5f, 0x64, 0x65, 0x74, 0x65, 0x63, 0x74,
  0x6f, 0x72, 0x5f, 0x31, 0x2f, 0x64, 0x65, 0x6e, 0x73, 0x65, 0x5f, 0x31,
  0x5f, 0x32, 0x2f, 0x42, 0x69, 0x61, 0x73, 0x41, 0x64, 0x64, 0x00, 0x00,
  0x01, 0x00, 0x00, 0x00, 0x08, 0x00, 0x00, 0x00, 0x00, 0x00, 0x16, 0x00,
  0x1c, 0x00, 0x18, 0x00, 0x00, 0x00, 0x14, 0x00, 0x10, 0x00, 0x0c, 0x00,
  0x00, 0x00, 0x00, 0x00, 0x08, 0x00, 0x07, 0x00, 0x16, 0x00, 0x00, 0x00,
  0x00, 0x00, 0x00, 0x01, 0x14, 0x00, 0x00, 0x00, 0x20, 0x00, 0x00, 0x00,
  0x20, 0x00, 0x00, 0x00, 0x01, 0x00, 0x00, 0x00, 0x3c, 0x00, 0x00, 0x00,
  0x02, 0x00, 0x00, 0x00, 0xff, 0xff, 0xff, 0xff, 0x04, 0x00, 0x00, 0x00,
  0x04, 0x00, 0x04, 0x00, 0x04, 0x00, 0x00, 0x00, 0x1e, 0x00, 0x00, 0x00,
  0x73, 0x65, 0x72, 0x76, 0x69, 0x6e, 0x67, 0x5f, 0x64, 0x65, 0x66, 0x61,
  0x75, 0x6c, 0x74, 0x5f, 0x6b, 0x65, 0x72, 0x61, 0x73, 0x5f, 0x74, 0x65,
  0x6e, 0x73, 0x6f, 0x72, 0x3a, 0x30, 0x00, 0x00, 0x02, 0x00, 0x00, 0x00,
  0x01, 0x00, 0x00, 0x00, 0x04, 0x00, 0x00, 0x00, 0x02, 0x00, 0x00, 0x00,
  0x20, 0x00, 0x00, 0x00, 0x04, 0x00, 0x00, 0x00, 0xf4, 0xff, 0xff, 0xff,
  0x19, 0x00, 0x00, 0x00, 0x00, 0x00, 0x00, 0x19, 0x0c, 0x00, 0x0c, 0x00,
  0x0b, 0x00, 0x00, 0x00, 0x00, 0x00, 0x04, 0x00, 0x0c, 0x00, 0x00, 0x00,
  0x09, 0x00, 0x00, 0x00, 0x00, 0x00, 0x00, 0x09
};
