
const unsigned char dht_anomaly_model_tflite[] = {
  0x20, 0x00, 0x00, 0x00, 0x54, 0x46, 0x4c, 0x33, 0x00, 0x00, 0x00, 0x00,
  0x14, 0x00, 0x20, 0x00, 0x1c, 0x00, 0x18, 0x00, 0x14, 0x00, 0x10, 0x00,
  0x0c, 0x00, 0x00, 0x00, 0x08, 0x00, 0x04, 0x00, 0x14, 0x00, 0x00, 0x00,
  0x1c, 0x00, 0x00, 0x00, 0x8c, 0x00, 0x00, 0x00, 0xe4, 0x00, 0x00, 0x00,
  0x80, 0x06, 0x00, 0x00, 0x90, 0x06, 0x00, 0x00, 0x40, 0x18, 0x00, 0x00,
  0x03, 0x00, 0x00, 0x00, 0x01, 0x00, 0x00, 0x00, 0x04, 0x00, 0x00, 0x00,
  0x26, 0xf9, 0xff, 0xff, 0x0c, 0x00, 0x00, 0x00, 0x1c, 0x00, 0x00, 0x00,
  0x3c, 0x00, 0x00, 0x00, 0x0f, 0x00, 0x00, 0x00, 0x73, 0x65, 0x72, 0x76,
  0x69, 0x6e, 0x67, 0x5f, 0x64, 0x65, 0x66, 0x61, 0x75, 0x6c, 0x74, 0x00,
  0x01, 0x00, 0x00, 0x00, 0x04, 0x00, 0x00, 0x00, 0x90, 0xff, 0xff, 0xff,
  0x0f, 0x00, 0x00, 0x00, 0x04, 0x00, 0x00, 0x00, 0x08, 0x00, 0x00, 0x00,
  0x6f, 0x75, 0x74, 0x70, 0x75, 0x74, 0x5f, 0x30, 0x00, 0x00, 0x00, 0x00,
  0x01, 0x00, 0x00, 0x00, 0x04, 0x00, 0x00, 0x00, 0x32, 0xf9, 0xff, 0xff,
  0x04, 0x00, 0x00, 0x00, 0x0c, 0x00, 0x00, 0x00, 0x6b, 0x65, 0x72, 0x61,
  0x73, 0x5f, 0x74, 0x65, 0x6e, 0x73, 0x6f, 0x72, 0x00, 0x00, 0x00, 0x00,
  0x02, 0x00, 0x00, 0x00, 0x34, 0x00, 0x00, 0x00, 0x04, 0x00, 0x00, 0x00,
  0xdc, 0xff, 0xff, 0xff, 0x12, 0x00, 0x00, 0x00, 0x04, 0x00, 0x00, 0x00,
  0x13, 0x00, 0x00, 0x00, 0x43, 0x4f, 0x4e, 0x56, 0x45, 0x52, 0x53, 0x49,
  0x4f, 0x4e, 0x5f, 0x4d, 0x45, 0x54, 0x41, 0x44, 0x41, 0x54, 0x41, 0x00,
  0x08, 0x00, 0x0c, 0x00, 0x08, 0x00, 0x04, 0x00, 0x08, 0x00, 0x00, 0x00,
  0x11, 0x00, 0x00, 0x00, 0x04, 0x00, 0x00, 0x00, 0x13, 0x00, 0x00, 0x00,
  0x6d, 0x69, 0x6e, 0x5f, 0x72, 0x75, 0x6e, 0x74, 0x69, 0x6d, 0x65, 0x5f,
  0x76, 0x65, 0x72, 0x73, 0x69, 0x6f, 0x6e, 0x00, 0x13, 0x00, 0x00, 0x00,
  0x98, 0x05, 0x00, 0x00, 0x90, 0x05, 0x00, 0x00, 0x74, 0x05, 0x00, 0x00,
  0x4c, 0x05, 0x00, 0x00, 0x1c, 0x05, 0x00, 0x00, 0x8c, 0x04, 0x00, 0x00,
  0x3c, 0x04, 0x00, 0x00, 0x2c, 0x02, 0x00, 0x00, 0x9c, 0x01, 0x00, 0x00,
  0xcc, 0x00, 0x00, 0x00, 0xc4, 0x00, 0x00, 0x00, 0xbc, 0x00, 0x00, 0x00,
  0xb4, 0x00, 0x00, 0x00, 0xac, 0x00, 0x00, 0x00, 0xa4, 0x00, 0x00, 0x00,
  0x9c, 0x00, 0x00, 0x00, 0x94, 0x00, 0x00, 0x00, 0x74, 0x00, 0x00, 0x00,
  0x04, 0x00, 0x00, 0x00, 0xfa, 0xf9, 0xff, 0xff, 0x04, 0x00, 0x00, 0x00,
  0x60, 0x00, 0x00, 0x00, 0x0c, 0x00, 0x00, 0x00, 0x08, 0x00, 0x0e, 0x00,
  0x08, 0x00, 0x04, 0x00, 0x08, 0x00, 0x00, 0x00, 0x10, 0x00, 0x00, 0x00,
  0x28, 0x00, 0x00, 0x00, 0x00, 0x00, 0x06, 0x00, 0x08, 0x00, 0x04, 0x00,
  0x06, 0x00, 0x00, 0x00, 0x04, 0x00, 0x00, 0x00, 0x01, 0x00, 0x00, 0x00,
  0xeb, 0x03, 0x00, 0x00, 0x0c, 0x00, 0x18, 0x00, 0x14, 0x00, 0x10, 0x00,
  0x0c, 0x00, 0x04, 0x00, 0x0c, 0x00, 0x00, 0x00, 0xdf, 0xa6, 0xcf, 0xdb,
  0x04, 0x0b, 0x0b, 0xc8, 0x02, 0x00, 0x00, 0x00, 0x02, 0x00, 0x00, 0x00,
  0x04, 0x00, 0x00, 0x00, 0x06, 0x00, 0x00, 0x00, 0x32, 0x2e, 0x32, 0x31,
  0x2e, 0x30, 0x00, 0x00, 0x66, 0xfa, 0xff, 0xff, 0x04, 0x00, 0x00, 0x00,
  0x10, 0x00, 0x00, 0x00, 0x31, 0x2e, 0x31, 0x34, 0x2e, 0x30, 0x00, 0x00,
  0x00, 0x00, 0x00, 0x00, 0x00, 0x00, 0x00, 0x00, 0xa8, 0xe9, 0xff, 0xff,
  0xac, 0xe9, 0xff, 0xff, 0xb0, 0xe9, 0xff, 0xff, 0xb4, 0xe9, 0xff, 0xff,
  0xb8, 0xe9, 0xff, 0xff, 0xbc, 0xe9, 0xff, 0xff, 0xc0, 0xe9, 0xff, 0xff,
  0x9e, 0xfa, 0xff, 0xff, 0x04, 0x00, 0x00, 0x00, 0xc0, 0x00, 0x00, 0x00,
  0x40, 0xdc, 0x90, 0x7f, 0x5c, 0x0b, 0x62, 0x61, 0xf7, 0x51, 0x7f, 0x31,
  0x95, 0x1f, 0x81, 0xe4, 0x1b, 0xe3, 0xe6, 0x03, 0x02, 0x81, 0xe7, 0x10,
  0x4f, 0xb0, 0x81, 0xeb, 0xef, 0xf1, 0xef, 0xf5, 0x0d, 0xdf, 0xdf, 0x81,
  0xbc, 0xea, 0x81, 0xf3, 0xec, 0x00, 0x7f, 0xc8, 0xc6, 0x0c, 0xf1, 0xb9,
  0xa0, 0x25, 0x01, 0x7f, 0xa9, 0x33, 0xf7, 0x9c, 0x81, 0xa1, 0xee, 0x03,
  0xfe, 0x40, 0x19, 0x7f, 0x11, 0xf5, 0x19, 0x1b, 0x87, 0x04, 0xb8, 0x81,
  0x0e, 0x3a, 0xfa, 0x81, 0xda, 0xe0, 0xb2, 0x87, 0x81, 0x26, 0x3b, 0x12,
  0xa1, 0x31, 0xa1, 0x81, 0x2c, 0x34, 0x03, 0xff, 0x32, 0x81, 0xf5, 0xff,
  0x7f, 0x1f, 0x2c, 0xcd, 0xe4, 0x11, 0x99, 0x32, 0xee, 0x7f, 0x3c, 0x3b,
  0xd1, 0xd7, 0x7f, 0x6c, 0x14, 0xf4, 0xf6, 0x81, 0x4a, 0xf1, 0xc7, 0x13,
  0x7f, 0xb4, 0x1d, 0xd4, 0x13, 0x06, 0x81, 0x0d, 0xfd, 0x1b, 0x49, 0x94,
  0xef, 0x07, 0x2f, 0x7f, 0x00, 0xf9, 0x46, 0x94, 0xe6, 0x57, 0x1d, 0x81,
  0x4a, 0xa4, 0x86, 0xa4, 0x7f, 0x16, 0x43, 0xf3, 0x1f, 0x06, 0x81, 0x1c,
  0xf6, 0xf9, 0x45, 0x81, 0x04, 0xfe, 0xef, 0x2d, 0xe4, 0xed, 0x30, 0x81,
  0x0c, 0x0e, 0x81, 0xcd, 0x03, 0xfd, 0x30, 0x81, 0x10, 0x95, 0xb8, 0xcf,
  0x32, 0x81, 0x50, 0x11, 0x3b, 0x21, 0x90, 0x1b, 0x7f, 0x85, 0x3f, 0x20,
  0x6a, 0xfb, 0xff, 0xff, 0x04, 0x00, 0x00, 0x00, 0x80, 0x00, 0x00, 0x00,
  0x7a, 0xc8, 0xff, 0xff, 0x0e, 0x3a, 0xff, 0xff, 0xee, 0x60, 0x00, 0x00,
  0xa4, 0x4a, 0x00, 0x00, 0x9e, 0x66, 0x00, 0x00, 0x43, 0x34, 0x00, 0x00,
  0x36, 0x6d, 0x00, 0x00, 0x9b, 0x13, 0x00, 0x00, 0xf7, 0xd9, 0xff, 0xff,
  0xae, 0xac, 0x00, 0x00, 0x43, 0x87, 0xff, 0xff, 0xc7, 0x52, 0x00, 0x00,
  0xef, 0x2a, 0x00, 0x00, 0x1e, 0x6f, 0x00, 0x00, 0xf6, 0x61, 0x00, 0x00,
  0x9c, 0x28, 0x00, 0x00, 0x8c, 0xc7, 0xff, 0xff, 0x8b, 0xb2, 0xff, 0xff,
  0x71, 0xaf, 0xff, 0xff, 0x05, 0x3b, 0x00, 0x00, 0xc5, 0xf6, 0xff, 0xff,
  0x94, 0x0d, 0x00, 0x00, 0x69, 0xab, 0xff, 0xff, 0xbd, 0x03, 0x00, 0x00,
  0x5d, 0x4c, 0x00, 0x00, 0x9f, 0x02, 0x00, 0x00, 0xce, 0x21, 0x00, 0x00,
  0x97, 0xfd, 0xff, 0xff, 0xc1, 0x49, 0x00, 0x00, 0x7a, 0x7a, 0x00, 0x00,
  0x09, 0xe9, 0xff, 0xff, 0x4f, 0xfe, 0xff, 0xff, 0xf6, 0xfb, 0xff, 0xff,
  0x04, 0x00, 0x00, 0x00, 0x00, 0x02, 0x00, 0x00, 0xa5, 0xbf, 0x2c, 0x10,
  0x25, 0x75, 0xaa, 0xca, 0x0c, 0xa6, 0xb6, 0xec, 0xdd, 0xea, 0xf3, 0x13,
  0xdd, 0xe9, 0x12, 0x9e, 0x81, 0xf0, 0xb4, 0x00, 0xa7, 0xc0, 0xdc, 0x43,
  0x96, 0x2c, 0xa1, 0xed, 0x2c, 0xdd, 0x81, 0x2a, 0x67, 0x14, 0x24, 0x08,
  0xad, 0xd9, 0x05, 0x86, 0xe6, 0xed, 0xc9, 0xb7, 0x6f, 0xe3, 0x63, 0x46,
  0x56, 0xca, 0xe2, 0x3c, 0x2b, 0xe7, 0xe8, 0x15, 0x1e, 0x0f, 0xf5, 0xbe,
  0xbf, 0xdb, 0x0b, 0xc2, 0x5d, 0xab, 0x3e, 0x2b, 0x56, 0xb7, 0x51, 0x2e,
  0x3c, 0x61, 0x47, 0x43, 0x7f, 0xf3, 0x27, 0x1b, 0xda, 0x25, 0x67, 0xbf,
  0xcd, 0x53, 0x60, 0xf7, 0x72, 0x46, 0xec, 0x38, 0x11, 0x56, 0x68, 0x4b,
  0xe9, 0xb8, 0xcf, 0x94, 0x10, 0xde, 0x61, 0xe9, 0x53, 0xad, 0xde, 0x7f,
  0xe8, 0x00, 0x69, 0xfa, 0xe1, 0xda, 0x44, 0xfc, 0x9c, 0x34, 0x4b, 0xc1,
  0xc1, 0x17, 0x55, 0x04, 0x98, 0xba, 0x0d, 0x50, 0xca, 0x81, 0x10, 0x08,
  0x6c, 0xda, 0xf5, 0x18, 0xf6, 0xd9, 0x6d, 0x3b, 0xc6, 0x36, 0x4e, 0x0e,
  0x34, 0xa7, 0x6a, 0xc3, 0x33, 0x40, 0x67, 0x08, 0x7e, 0x23, 0x2b, 0x42,
  0xea, 0x45, 0x97, 0xad, 0x30, 0xc6, 0xb5, 0x72, 0x04, 0xe1, 0x81, 0x2a,
  0xf5, 0x33, 0x14, 0x90, 0xbe, 0x27, 0xbe, 0xaf, 0x37, 0xdc, 0xa3, 0xd3,
  0xea, 0x3f, 0xdf, 0xe3, 0xf4, 0x0d, 0x48, 0x0b, 0x12, 0xd8, 0x1c, 0x54,
  0x2f, 0x45, 0x26, 0xbc, 0x1a, 0x6d, 0xf1, 0xc3, 0x7f, 0xc3, 0xfc, 0xfe,
  0xde, 0xdf, 0x9f, 0xc0, 0x15, 0xc3, 0xfe, 0xb7, 0x3a, 0x0d, 0x3f, 0xc1,
  0x78, 0x44, 0xdd, 0x40, 0x76, 0xc5, 0xd8, 0x06, 0x1c, 0xc7, 0x00, 0x15,
  0x59, 0xdf, 0x7f, 0x1c, 0x20, 0x79, 0xbe, 0x46, 0x46, 0x24, 0x34, 0xce,
  0x6a, 0x14, 0xe8, 0xd7, 0xae, 0x30, 0x35, 0xa0, 0x28, 0x2f, 0xdb, 0xd9,
  0xf0, 0x3d, 0xbe, 0x8d, 0x13, 0x45, 0xf3, 0x4b, 0xb4, 0xee, 0xd5, 0x3b,
  0xbd, 0x0c, 0xe5, 0x81, 0xe7, 0xa7, 0xdc, 0xe9, 0x2c, 0x25, 0xb3, 0x40,
  0xf7, 0x2e, 0xf2, 0x68, 0xb2, 0x26, 0x1e, 0x81, 0x1a, 0x39, 0xed, 0x81,
  0x2f, 0x2e, 0xd0, 0x27, 0x06, 0x3c, 0xe5, 0x29, 0x10, 0x24, 0x91, 0xed,
  0xf8, 0x9d, 0xe8, 0xdf, 0x0c, 0xd4, 0xda, 0x4f, 0x57, 0x3d, 0x91, 0x62,
  0x90, 0x34, 0xfa, 0x94, 0xf7, 0x81, 0xcc, 0xa3, 0x13, 0x40, 0x0c, 0xe6,
  0xf5, 0xe4, 0x9f, 0x13, 0x15, 0xab, 0xfc, 0xed, 0xbf, 0xc9, 0xd1, 0x91,
  0x95, 0xfd, 0xfb, 0xca, 0x8e, 0x0c, 0x26, 0x06, 0xec, 0xa0, 0xe2, 0x0e,
  0xeb, 0x90, 0x1a, 0xde, 0x92, 0xf8, 0xba, 0x1c, 0xfe, 0xff, 0x1c, 0x6a,
  0x7f, 0xcc, 0x06, 0xdf, 0xad, 0x9e, 0x29, 0x0d, 0x1f, 0x16, 0xf4, 0xc8,
  0xeb, 0x31, 0xf8, 0x31, 0xc9, 0xf3, 0xb6, 0xe7, 0xb9, 0x92, 0x41, 0x8b,
  0xf2, 0x7f, 0xc5, 0xb4, 0xfe, 0xcd, 0x1c, 0x6f, 0x34, 0xe4, 0xb3, 0x02,
  0xfb, 0xd4, 0x9d, 0x1e, 0xb4, 0x31, 0xe9, 0xb4, 0xfa, 0x84, 0x49, 0x20,
  0xc8, 0xd4, 0x1b, 0xce, 0x4c, 0x12, 0x70, 0xc9, 0x37, 0x30, 0x7f, 0x1b,
  0x7e, 0x48, 0x40, 0x65, 0xd4, 0x08, 0x1f, 0x04, 0xb1, 0x75, 0xaf, 0xdc,
  0xb0, 0xad, 0x3f, 0xab, 0xd2, 0x3f, 0xcf, 0x2c, 0x13, 0xec, 0xe1, 0xcc,
  0xfc, 0xb0, 0xfd, 0x23, 0xcb, 0x29, 0xac, 0xde, 0xbb, 0xc6, 0xfe, 0x4f,
  0x06, 0xcf, 0x25, 0xd8, 0xbe, 0x53, 0xec, 0xdd, 0x88, 0x7f, 0x56, 0xe2,
  0x88, 0x26, 0xb3, 0xd6, 0xde, 0x9e, 0xed, 0x32, 0x8c, 0x01, 0x27, 0xe3,
  0xf0, 0x7f, 0xdd, 0xb0, 0xef, 0xb9, 0xe8, 0x19, 0x20, 0xf7, 0x4f, 0x8f,
  0xf8, 0xec, 0xdb, 0x25, 0xb8, 0x2e, 0xda, 0xd3, 0xde, 0x81, 0x39, 0xdf,
  0xa4, 0xa9, 0xe1, 0x6a, 0x02, 0xfe, 0xff, 0xff, 0x04, 0x00, 0x00, 0x00,
  0x40, 0x00, 0x00, 0x00, 0xbe, 0x40, 0x00, 0x00, 0x0e, 0x10, 0x00, 0x00,
  0x57, 0xd5, 0xff, 0xff, 0xa0, 0xf2, 0xff, 0xff, 0x87, 0xf0, 0xff, 0xff,
  0x10, 0x1b, 0x00, 0x00, 0xd7, 0xeb, 0xff, 0xff, 0xff, 0xed, 0xff, 0xff,
  0x67, 0x24, 0x00, 0x00, 0x41, 0x12, 0x00, 0x00, 0xd5, 0x46, 0x00, 0x00,
  0x53, 0x18, 0x00, 0x00, 0x3a, 0x1d, 0x00, 0x00, 0x0b, 0xf1, 0xff, 0xff,
  0xb4, 0x2c, 0x00, 0x00, 0x2c, 0x1f, 0x00, 0x00, 0x4e, 0xfe, 0xff, 0xff,
  0x04, 0x00, 0x00, 0x00, 0x80, 0x00, 0x00, 0x00, 0xcb, 0x21, 0x5f, 0x7f,
  0x21, 0xbf, 0x6b, 0x7a, 0xd1, 0xb2, 0x0e, 0x03, 0xcb, 0x4b, 0x68, 0xb7,
  0x08, 0x5c, 0xf0, 0xf8, 0xc1, 0x43, 0xd9, 0x14, 0x7f, 0x74, 0x06, 0xf5,
  0xbe, 0xf5, 0xc1, 0x9c, 0x5e, 0xb4, 0xcd, 0x08, 0x1b, 0x15, 0x07, 0xce,
  0x00, 0xff, 0x7f, 0x16, 0x10, 0x39, 0x7e, 0x3b, 0xd2, 0xd3, 0x52, 0xe1,
  0x03, 0xbc, 0x25, 0xe6, 0xca, 0x15, 0xca, 0x00, 0xf2, 0x7f, 0xe5, 0x6e,
  0x62, 0x7a, 0xf2, 0xd8, 0xeb, 0xa3, 0x1e, 0xaa, 0x02, 0x7f, 0x7e, 0xd1,
  0x5d, 0x9d, 0xdf, 0xa4, 0xe1, 0xf3, 0x4b, 0x28, 0x7f, 0xdc, 0xf3, 0xed,
  0xd4, 0x31, 0xc2, 0x0b, 0x23, 0x43, 0x35, 0x47, 0x73, 0xde, 0x92, 0x9a,
  0xc6, 0xe1, 0xdb, 0xb1, 0x40, 0x06, 0x29, 0x7f, 0x56, 0x16, 0x37, 0x3c,
  0x1c, 0x71, 0x33, 0x57, 0x2d, 0xd2, 0x7f, 0xad, 0xb0, 0x2c, 0xb2, 0x39,
  0x0d, 0xde, 0xa5, 0xe0, 0xda, 0xfe, 0xff, 0xff, 0x04, 0x00, 0x00, 0x00,
  0x20, 0x00, 0x00, 0x00, 0xbb, 0x02, 0x00, 0x00, 0x2d, 0x0a, 0x00, 0x00,
  0xdb, 0x04, 0x00, 0x00, 0xb3, 0x04, 0x00, 0x00, 0x79, 0x0b, 0x00, 0x00,
  0x54, 0x05, 0x00, 0x00, 0x25, 0x08, 0x00, 0x00, 0x94, 0x01, 0x00, 0x00,
  0x06, 0xff, 0xff, 0xff, 0x04, 0x00, 0x00, 0x00, 0x18, 0x00, 0x00, 0x00,
  0xb0, 0x86, 0x68, 0xd6, 0xfd, 0x10, 0x6e, 0x81, 0xc5, 0x7f, 0xab, 0x8e,
  0x17, 0xe7, 0x0a, 0xe1, 0x5c, 0xb1, 0x0d, 0x68, 0xaf, 0x48, 0x81, 0x4b,
  0x2a, 0xff, 0xff, 0xff, 0x04, 0x00, 0x00, 0x00, 0x0c, 0x00, 0x00, 0x00,
  0x03, 0x02, 0x00, 0x00, 0x42, 0xff, 0xff, 0xff, 0xa6, 0xfe, 0xff, 0xff,
  0x68, 0xee, 0xff, 0xff, 0x6c, 0xee, 0xff, 0xff, 0x0f, 0x00, 0x00, 0x00,
  0x4d, 0x4c, 0x49, 0x52, 0x20, 0x43, 0x6f, 0x6e, 0x76, 0x65, 0x72, 0x74,
  0x65, 0x64, 0x2e, 0x00, 0x01, 0x00, 0x00, 0x00, 0x14, 0x00, 0x00, 0x00,
  0x00, 0x00, 0x0e, 0x00, 0x18, 0x00, 0x14, 0x00, 0x10, 0x00, 0x0c, 0x00,
  0x08, 0x00, 0x04, 0x00, 0x0e, 0x00, 0x00, 0x00, 0x14, 0x00, 0x00, 0x00,
  0x1c, 0x00, 0x00, 0x00, 0xc8, 0x01, 0x00, 0x00, 0xcc, 0x01, 0x00, 0x00,
  0xd0, 0x01, 0x00, 0x00, 0x04, 0x00, 0x00, 0x00, 0x6d, 0x61, 0x69, 0x6e,
  0x00, 0x00, 0x00, 0x00, 0x07, 0x00, 0x00, 0x00, 0x90, 0x01, 0x00, 0x00,
  0x40, 0x01, 0x00, 0x00, 0xf4, 0x00, 0x00, 0x00, 0xa8, 0x00, 0x00, 0x00,
  0x70, 0x00, 0x00, 0x00, 0x34, 0x00, 0x00, 0x00, 0x10, 0x00, 0x00, 0x00,
  0x00, 0x00, 0x0a, 0x00, 0x10, 0x00, 0x0c, 0x00, 0x08, 0x00, 0x04, 0x00,
  0x0a, 0x00, 0x00, 0x00, 0x0c, 0x00, 0x00, 0x00, 0x10, 0x00, 0x00, 0x00,
  0x03, 0x00, 0x00, 0x00, 0x01, 0x00, 0x00, 0x00, 0x0f, 0x00, 0x00, 0x00,
  0x01, 0x00, 0x00, 0x00, 0x0e, 0x00, 0x00, 0x00, 0x12, 0xff, 0xff, 0xff,
  0x1c, 0x00, 0x00, 0x00, 0x00, 0x00, 0x00, 0x09, 0x1c, 0x00, 0x00, 0x00,
  0x20, 0x00, 0x00, 0x00, 0x02, 0x00, 0x00, 0x00, 0x00, 0x00, 0x06, 0x00,
  0x08, 0x00, 0x04, 0x00, 0x06, 0x00, 0x00, 0x00, 0x00, 0x00, 0x80, 0x3f,
  0x01, 0x00, 0x00, 0x00, 0x0e, 0x00, 0x00, 0x00, 0x01, 0x00, 0x00, 0x00,
  0x0d, 0x00, 0x00, 0x00, 0x92, 0xff, 0xff, 0xff, 0x14, 0x00, 0x00, 0x00,
  0x00, 0x00, 0x00, 0x08, 0x10, 0x00, 0x00, 0x00, 0x14, 0x00, 0x00, 0x00,
  0x01, 0x00, 0x00, 0x00, 0x5c, 0xef, 0xff, 0xff, 0x01, 0x00, 0x00, 0x00,
  0x0d, 0x00, 0x00, 0x00, 0x03, 0x00, 0x00, 0x00, 0x0c, 0x00, 0x00, 0x00,
  0x02, 0x00, 0x00, 0x00, 0x01, 0x00, 0x00, 0x00, 0xc6, 0xff, 0xff, 0xff,
  0x14, 0x00, 0x00, 0x00, 0x00, 0x00, 0x00, 0x08, 0x14, 0x00, 0x00, 0x00,
  0x18, 0x00, 0x00, 0x00, 0x01, 0x00, 0x00, 0x00, 0x6e, 0xff, 0xff, 0xff,
  0x00, 0x00, 0x00, 0x01, 0x01, 0x00, 0x00, 0x00, 0x0c, 0x00, 0x00, 0x00,
  0x03, 0x00, 0x00, 0x00, 0x0b, 0x00, 0x00, 0x00, 0x04, 0x00, 0x00, 0x00,
  0x03, 0x00, 0x00, 0x00, 0x00, 0x00, 0x0e, 0x00, 0x18, 0x00, 0x14, 0x00,
  0x10, 0x00, 0x0c, 0x00, 0x0b, 0x00, 0x04, 0x00, 0x0e, 0x00, 0x00, 0x00,
  0x14, 0x00, 0x00, 0x00, 0x00, 0x00, 0x00, 0x08, 0x14, 0x00, 0x00, 0x00,
  0x18, 0x00, 0x00, 0x00, 0x01, 0x00, 0x00, 0x00, 0xb6, 0xff, 0xff, 0xff,
  0x00, 0x00, 0x00, 0x01, 0x01, 0x00, 0x00, 0x00, 0x0b, 0x00, 0x00, 0x00,
  0x03, 0x00, 0x00, 0x00, 0x0a, 0x00, 0x00, 0x00, 0x06, 0x00, 0x00, 0x00,
  0x05, 0x00, 0x00, 0x00, 0x00, 0x00, 0x0e, 0x00, 0x1a, 0x00, 0x14, 0x00,
  0x10, 0x00, 0x0c, 0x00, 0x0b, 0x00, 0x04, 0x00, 0x0e, 0x00, 0x00, 0x00,
  0x1c, 0x00, 0x00, 0x00, 0x00, 0x00, 0x00, 0x08, 0x1c, 0x00, 0x00, 0x00,
  0x20, 0x00, 0x00, 0x00, 0x01, 0x00, 0x00, 0x00, 0x00, 0x00, 0x06, 0x00,
  0x08, 0x00, 0x07, 0x00, 0x06, 0x00, 0x00, 0x00, 0x00, 0x00, 0x00, 0x01,
  0x01, 0x00, 0x00, 0x00, 0x0a, 0x00, 0x00, 0x00, 0x03, 0x00, 0x00, 0x00,
  0x09, 0x00, 0x00, 0x00, 0x08, 0x00, 0x00, 0x00, 0x07, 0x00, 0x00, 0x00,
  0x00, 0x00, 0x0a, 0x00, 0x0c, 0x00, 0x00, 0x00, 0x08, 0x00, 0x04, 0x00,
  0x0a, 0x00, 0x00, 0x00, 0x08, 0x00, 0x00, 0x00, 0x0c, 0x00, 0x00, 0x00,
  0x01, 0x00, 0x00, 0x00, 0x09, 0x00, 0x00, 0x00, 0x01, 0x00, 0x00, 0x00,
  0x00, 0x00, 0x00, 0x00, 0x01, 0x00, 0x00, 0x00, 0x0f, 0x00, 0x00, 0x00,
  0x01, 0x00, 0x00, 0x00, 0x00, 0x00, 0x00, 0x00, 0x10, 0x00, 0x00, 0x00,
  0x54, 0x0f, 0x00, 0x00, 0xa0, 0x0e, 0x00, 0x00, 0xf8, 0x0d, 0x00, 0x00,
  0x0c, 0x0d, 0x00, 0x00, 0x40, 0x0c, 0x00, 0x00, 0xdc, 0x0a, 0x00, 0x00,
  0x98, 0x09, 0x00, 0x00, 0x74, 0x07, 0x00, 0x00, 0x70, 0x05, 0x00, 0x00,
  0xfc, 0x04, 0x00, 0x00, 0xa8, 0x03, 0x00, 0x00, 0x5c, 0x02, 0x00, 0x00,
  0x90, 0x01, 0x00, 0x00, 0xe4, 0x00, 0x00, 0x00, 0x60, 0x00, 0x00, 0x00,
  0x04, 0x00, 0x00, 0x00, 0x02, 0xf1, 0xff, 0xff, 0x00, 0x00, 0x00, 0x01,
  0x14, 0x00, 0x00, 0x00, 0x1c, 0x00, 0x00, 0x00, 0x1c, 0x00, 0x00, 0x00,
  0x10, 0x00, 0x00, 0x00, 0x34, 0x00, 0x00, 0x00, 0x02, 0x00, 0x00, 0x00,
  0xff, 0xff, 0xff, 0xff, 0x03, 0x00, 0x00, 0x00, 0xec, 0xf0, 0xff, 0xff,
  0x1b, 0x00, 0x00, 0x00, 0x53, 0x74, 0x61, 0x74, 0x65, 0x66, 0x75, 0x6c,
  0x50, 0x61, 0x72, 0x74, 0x69, 0x74, 0x69, 0x6f, 0x6e, 0x65, 0x64, 0x43,
  0x61, 0x6c, 0x6c, 0x5f, 0x31, 0x3a, 0x30, 0x00, 0x02, 0x00, 0x00, 0x00,
  0x01, 0x00, 0x00, 0x00, 0x03, 0x00, 0x00, 0x00, 0x8e, 0xfb, 0xff, 0xff,
  0x00, 0x00, 0x00, 0x01, 0x18, 0x00, 0x00, 0x00, 0x20, 0x00, 0x00, 0x00,
  0x40, 0x00, 0x00, 0x00, 0x0f, 0x00, 0x00, 0x00, 0x00, 0x00, 0x00, 0x09,
  0x58, 0x00, 0x00, 0x00, 0x02, 0x00, 0x00, 0x00, 0xff, 0xff, 0xff, 0xff,
  0x03, 0x00, 0x00, 0x00, 0x04, 0xf2, 0xff, 0xff, 0x08, 0x00, 0x00, 0x00,
  0x14, 0x00, 0x00, 0x00, 0x01, 0x00, 0x00, 0x00, 0x80, 0xff, 0xff, 0xff,
  0xff, 0xff, 0xff, 0xff, 0x00, 0x00, 0x00, 0x00, 0x01, 0x00, 0x00, 0x00,
  0x00, 0x00, 0x80, 0x3b, 0x1c, 0x00, 0x00, 0x00, 0x53, 0x74, 0x61, 0x74,
  0x65, 0x66, 0x75, 0x6c, 0x50, 0x61, 0x72, 0x74, 0x69, 0x74, 0x69, 0x6f,
  0x6e, 0x65, 0x64, 0x43, 0x61, 0x6c, 0x6c, 0x5f, 0x31, 0x3a, 0x30, 0x31,
  0x00, 0x00, 0x00, 0x00, 0x02, 0x00, 0x00, 0x00, 0x01, 0x00, 0x00, 0x00,
  0x03, 0x00, 0x00, 0x00, 0x0e, 0xfc, 0xff, 0xff, 0x00, 0x00, 0x00, 0x01,
  0x18, 0x00, 0x00, 0x00, 0x20, 0x00, 0x00, 0x00, 0x3c, 0x00, 0x00, 0x00,
  0x0e, 0x00, 0x00, 0x00, 0x00, 0x00, 0x00, 0x09, 0x80, 0x00, 0x00, 0x00,
  0x02, 0x00, 0x00, 0x00, 0xff, 0xff, 0xff, 0xff, 0x03, 0x00, 0x00, 0x00,
  0x84, 0xf2, 0xff, 0xff, 0x08, 0x00, 0x00, 0x00, 0x10, 0x00, 0x00, 0x00,
  0x01, 0x00, 0x00, 0x00, 0xf3, 0xff, 0xff, 0xff, 0xff, 0xff, 0xff, 0xff,
  0x01, 0x00, 0x00, 0x00, 0x24, 0x96, 0xad, 0x3d, 0x48, 0x00, 0x00, 0x00,
  0x64, 0x68, 0x74, 0x32, 0x30, 0x5f, 0x61, 0x6e, 0x6f, 0x6d, 0x61, 0x6c,
  0x79, 0x5f, 0x76, 0x32, 0x5f, 0x31, 0x2f, 0x64, 0x65, 0x6e, 0x73, 0x65,
  0x5f, 0x33, 0x5f, 0x31, 0x2f, 0x4d, 0x61, 0x74, 0x4d, 0x75, 0x6c, 0x3b,
  0x64, 0x68, 0x74, 0x32, 0x30, 0x5f, 0x61, 0x6e, 0x6f, 0x6d, 0x61, 0x6c,
  0x79, 0x5f, 0x76, 0x32, 0x5f, 0x31, 0x2f, 0x64, 0x65, 0x6e, 0x73, 0x65,
  0x5f, 0x33, 0x5f, 0x31, 0x2f, 0x42, 0x69, 0x61, 0x73, 0x41, 0x64, 0x64,
  0x00, 0x00, 0x00, 0x00, 0x02, 0x00, 0x00, 0x00, 0x01, 0x00, 0x00, 0x00,
  0x03, 0x00, 0x00, 0x00, 0xb6, 0xfc, 0xff, 0xff, 0x00, 0x00, 0x00, 0x01,
  0x18, 0x00, 0x00, 0x00, 0x20, 0x00, 0x00, 0x00, 0x3c, 0x00, 0x00, 0x00,
  0x0d, 0x00, 0x00, 0x00, 0x00, 0x00, 0x00, 0x09, 0xa0, 0x00, 0x00, 0x00,
  0x02, 0x00, 0x00, 0x00, 0xff, 0xff, 0xff, 0xff, 0x08, 0x00, 0x00, 0x00,
  0x2c, 0xf3, 0xff, 0xff, 0x08, 0x00, 0x00, 0x00, 0x10, 0x00, 0x00, 0x00,
  0x01, 0x00, 0x00, 0x00, 0x80, 0xff, 0xff, 0xff, 0xff, 0xff, 0xff, 0xff,
  0x01, 0x00, 0x00, 0x00, 0x55, 0x2a, 0x11, 0x3d, 0x6a, 0x00, 0x00, 0x00,
  0x64, 0x68, 0x74, 0x32, 0x30, 0x5f, 0x61, 0x6e, 0x6f, 0x6d, 0x61, 0x6c,
  0x79, 0x5f, 0x76, 0x32, 0x5f, 0x31, 0x2f, 0x64, 0x65, 0x6e, 0x73, 0x65,
  0x5f, 0x32, 0x5f, 0x31, 0x2f, 0x4d, 0x61, 0x74, 0x4d, 0x75, 0x6c, 0x3b,
  0x64, 0x68, 0x74, 0x32, 0x30, 0x5f, 0x61, 0x6e, 0x6f, 0x6d, 0x61, 0x6c,
  0x79, 0x5f, 0x76, 0x32, 0x5f, 0x31, 0x2f, 0x64, 0x65, 0x6e, 0x73, 0x65,
  0x5f, 0x32, 0x5f, 0x31, 0x2f, 0x52, 0x65, 0x6c, 0x75, 0x3b, 0x64, 0x68,
  0x74, 0x32, 0x30, 0x5f, 0x61, 0x6e, 0x6f, 0x6d, 0x61, 0x6c, 0x79, 0x5f,
  0x76, 0x32, 0x5f, 0x31, 0x2f, 0x64, 0x65, 0x6e, 0x73, 0x65, 0x5f, 0x32,
  0x5f, 0x31, 0x2f, 0x42, 0x69, 0x61, 0x73, 0x41, 0x64, 0x64, 0x00, 0x00,
  0x02, 0x00, 0x00, 0x00, 0x01, 0x00, 0x00, 0x00, 0x08, 0x00, 0x00, 0x00,
  0x7e, 0xfd, 0xff, 0xff, 0x00, 0x00, 0x00, 0x01, 0x18, 0x00, 0x00, 0x00,
  0x20, 0x00, 0x00, 0x00, 0x40, 0x00, 0x00, 0x00, 0x0c, 0x00, 0x00, 0x00,
  0x00, 0x00, 0x00, 0x09, 0x20, 0x01, 0x00, 0x00, 0x02, 0x00, 0x00, 0x00,
  0xff, 0xff, 0xff, 0xff, 0x10, 0x00, 0x00, 0x00, 0xf4, 0xf3, 0xff, 0xff,
  0x08, 0x00, 0x00, 0x00, 0x14, 0x00, 0x00, 0x00, 0x01, 0x00, 0x00, 0x00,
  0x80, 0xff, 0xff, 0xff, 0xff, 0xff, 0xff, 0xff, 0x00, 0x00, 0x00, 0x00,
  0x01, 0x00, 0x00, 0x00, 0xd7, 0x5f, 0xab, 0x3c, 0xe5, 0x00, 0x00, 0x00,
  0x64, 0x68, 0x74, 0x32, 0x30, 0x5f, 0x61, 0x6e, 0x6f, 0x6d, 0x61, 0x6c,
  0x79, 0x5f, 0x76, 0x32, 0x5f, 0x31, 0x2f, 0x64, 0x65, 0x6e, 0x73, 0x65,
  0x5f, 0x31, 0x5f, 0x32, 0x2f, 0x4d, 0x61, 0x74, 0x4d, 0x75, 0x6c, 0x3b,
  0x64, 0x68, 0x74, 0x32, 0x30, 0x5f, 0x61, 0x6e, 0x6f, 0x6d, 0x61, 0x6c,
  0x79, 0x5f, 0x76, 0x32, 0x5f, 0x31, 0x2f, 0x64, 0x65, 0x6e, 0x73, 0x65,
  0x5f, 0x31, 0x5f, 0x32, 0x2f, 0x42, 0x69, 0x61, 0x73, 0x41, 0x64, 0x64,
  0x3b, 0x64, 0x68, 0x74, 0x32, 0x30, 0x5f, 0x61, 0x6e, 0x6f, 0x6d, 0x61,
  0x6c, 0x79, 0x5f, 0x76, 0x32, 0x5f, 0x31, 0x2f, 0x62, 0x61, 0x74, 0x63,
  0x68, 0x5f, 0x6e, 0x6f, 0x72, 0x6d, 0x61, 0x6c, 0x69, 0x7a, 0x61, 0x74,
  0x69, 0x6f, 0x6e, 0x5f, 0x31, 0x5f, 0x32, 0x2f, 0x62, 0x61, 0x74, 0x63,
  0x68, 0x6e, 0x6f, 0x72, 0x6d, 0x2f, 0x6d, 0x75, 0x6c, 0x5f, 0x31, 0x3b,
  0x64, 0x68, 0x74, 0x32, 0x30, 0x5f, 0x61, 0x6e, 0x6f, 0x6d, 0x61, 0x6c,
  0x79, 0x5f, 0x76, 0x32, 0x5f, 0x31, 0x2f, 0x61, 0x63, 0x74, 0x69, 0x76,
  0x61, 0x74, 0x69, 0x6f, 0x6e, 0x5f, 0x31, 0x5f, 0x32, 0x2f, 0x52, 0x65,
  0x6c, 0x75, 0x3b, 0x64, 0x68, 0x74, 0x32, 0x30, 0x5f, 0x61, 0x6e, 0x6f,
  0x6d, 0x61, 0x6c, 0x79, 0x5f, 0x76, 0x32, 0x5f, 0x31, 0x2f, 0x62, 0x61,
  0x74, 0x63, 0x68, 0x5f, 0x6e, 0x6f, 0x72, 0x6d, 0x61, 0x6c, 0x69, 0x7a,
  0x61, 0x74, 0x69, 0x6f, 0x6e, 0x5f, 0x31, 0x5f, 0x32, 0x2f, 0x62, 0x61,
  0x74, 0x63, 0x68, 0x6e, 0x6f, 0x72, 0x6d, 0x2f, 0x61, 0x64, 0x64, 0x5f,
  0x31, 0x00, 0x00, 0x00, 0x02, 0x00, 0x00, 0x00, 0x01, 0x00, 0x00, 0x00,
  0x10, 0x00, 0x00, 0x00, 0xc6, 0xfe, 0xff, 0xff, 0x00, 0x00, 0x00, 0x01,
  0x18, 0x00, 0x00, 0x00, 0x20, 0x00, 0x00, 0x00, 0x3c, 0x00, 0x00, 0x00,
  0x0b, 0x00, 0x00, 0x00, 0x00, 0x00, 0x00, 0x09, 0x10, 0x01, 0x00, 0x00,
  0x02, 0x00, 0x00, 0x00, 0xff, 0xff, 0xff, 0xff, 0x20, 0x00, 0x00, 0x00,
  0x3c, 0xf5, 0xff, 0xff, 0x08, 0x00, 0x00, 0x00, 0x10, 0x00, 0x00, 0x00,
  0x01, 0x00, 0x00, 0x00, 0x80, 0xff, 0xff, 0xff, 0xff, 0xff, 0xff, 0xff,
  0x01, 0x00, 0x00, 0x00, 0xfd, 0x43, 0xa8, 0x3c, 0xdb, 0x00, 0x00, 0x00,
  0x64, 0x68, 0x74, 0x32, 0x30, 0x5f, 0x61, 0x6e, 0x6f, 0x6d, 0x61, 0x6c,
  0x79, 0x5f, 0x76, 0x32, 0x5f, 0x31, 0x2f, 0x64, 0x65, 0x6e, 0x73, 0x65,
  0x5f, 0x31, 0x2f, 0x4d, 0x61, 0x74, 0x4d, 0x75, 0x6c, 0x3b, 0x64, 0x68,
  0x74, 0x32, 0x30, 0x5f, 0x61, 0x6e, 0x6f, 0x6d, 0x61, 0x6c, 0x79, 0x5f,
  0x76, 0x32, 0x5f, 0x31, 0x2f, 0x64, 0x65, 0x6e, 0x73, 0x65, 0x5f, 0x31,
  0x2f, 0x42, 0x69, 0x61, 0x73, 0x41, 0x64, 0x64, 0x3b, 0x64, 0x68, 0x74,
  0x32, 0x30, 0x5f, 0x61, 0x6e, 0x6f, 0x6d, 0x61, 0x6c, 0x79, 0x5f, 0x76,
  0x32, 0x5f, 0x31, 0x2f, 0x62, 0x61, 0x74, 0x63, 0x68, 0x5f, 0x6e, 0x6f,
  0x72, 0x6d, 0x61, 0x6c, 0x69, 0x7a, 0x61, 0x74, 0x69, 0x6f, 0x6e, 0x5f,
  0x31, 0x2f, 0x62, 0x61, 0x74, 0x63, 0x68, 0x6e, 0x6f, 0x72, 0x6d, 0x2f,
  0x6d, 0x75, 0x6c, 0x5f, 0x31, 0x3b, 0x64, 0x68, 0x74, 0x32, 0x30, 0x5f,
  0x61, 0x6e, 0x6f, 0x6d, 0x61, 0x6c, 0x79, 0x5f, 0x76, 0x32, 0x5f, 0x31,
  0x2f, 0x61, 0x63, 0x74, 0x69, 0x76, 0x61, 0x74, 0x69, 0x6f, 0x6e, 0x5f,
  0x31, 0x2f, 0x52, 0x65, 0x6c, 0x75, 0x3b, 0x64, 0x68, 0x74, 0x32, 0x30,
  0x5f, 0x61, 0x6e, 0x6f, 0x6d, 0x61, 0x6c, 0x79, 0x5f, 0x76, 0x32, 0x5f,
  0x31, 0x2f, 0x62, 0x61, 0x74, 0x63, 0x68, 0x5f, 0x6e, 0x6f, 0x72, 0x6d,
  0x61, 0x6c, 0x69, 0x7a, 0x61, 0x74, 0x69, 0x6f, 0x6e, 0x5f, 0x31, 0x2f,
  0x62, 0x61, 0x74, 0x63, 0x68, 0x6e, 0x6f, 0x72, 0x6d, 0x2f, 0x61, 0x64,
  0x64, 0x5f, 0x31, 0x00, 0x02, 0x00, 0x00, 0x00, 0x01, 0x00, 0x00, 0x00,
  0x20, 0x00, 0x00, 0x00, 0x00, 0x00, 0x16, 0x00, 0x20, 0x00, 0x1c, 0x00,
  0x1b, 0x00, 0x14, 0x00, 0x10, 0x00, 0x0c, 0x00, 0x00, 0x00, 0x00, 0x00,
  0x08, 0x00, 0x07, 0x00, 0x16, 0x00, 0x00, 0x00, 0x00, 0x00, 0x00, 0x01,
  0x18, 0x00, 0x00, 0x00, 0x20, 0x00, 0x00, 0x00, 0x40, 0x00, 0x00, 0x00,
  0x0a, 0x00, 0x00, 0x00, 0x00, 0x00, 0x00, 0x09, 0x48, 0x00, 0x00, 0x00,
  0x02, 0x00, 0x00, 0x00, 0xff, 0xff, 0xff, 0xff, 0x06, 0x00, 0x00, 0x00,
  0x8c, 0xf6, 0xff, 0xff, 0x08, 0x00, 0x00, 0x00, 0x14, 0x00, 0x00, 0x00,
  0x01, 0x00, 0x00, 0x00, 0x80, 0xff, 0xff, 0xff, 0xff, 0xff, 0xff, 0xff,
  0x00, 0x00, 0x00, 0x00, 0x01, 0x00, 0x00, 0x00, 0x81, 0x80, 0x80, 0x3b,
  0x0c, 0x00, 0x00, 0x00, 0x74, 0x66, 0x6c, 0x2e, 0x71, 0x75, 0x61, 0x6e,
  0x74, 0x69, 0x7a, 0x65, 0x00, 0x00, 0x00, 0x00, 0x02, 0x00, 0x00, 0x00,
  0x01, 0x00, 0x00, 0x00, 0x06, 0x00, 0x00, 0x00, 0x02, 0xf7, 0xff, 0xff,
  0x00, 0x00, 0x00, 0x01, 0x14, 0x00, 0x00, 0x00, 0xa8, 0x01, 0x00, 0x00,
  0x09, 0x00, 0x00, 0x00, 0x00, 0x00, 0x00, 0x09, 0xdc, 0x01, 0x00, 0x00,
  0xec, 0xf6, 0xff, 0xff, 0x08, 0x00, 0x00, 0x00, 0x0c, 0x01, 0x00, 0x00,
  0x20, 0x00, 0x00, 0x00, 0x00, 0x00, 0x00, 0x00, 0x00, 0x00, 0x00, 0x00,
  0x00, 0x00, 0x00, 0x00, 0x00, 0x00, 0x00, 0x00, 0x00, 0x00, 0x00, 0x00,
  0x00, 0x00, 0x00, 0x00, 0x00, 0x00, 0x00, 0x00, 0x00, 0x00, 0x00, 0x00,
  0x00, 0x00, 0x00, 0x00, 0x00, 0x00, 0x00, 0x00, 0x00, 0x00, 0x00, 0x00,
  0x00, 0x00, 0x00, 0x00, 0x00, 0x00, 0x00, 0x00, 0x00, 0x00, 0x00, 0x00,
  0x00, 0x00, 0x00, 0x00, 0x00, 0x00, 0x00, 0x00, 0x00, 0x00, 0x00, 0x00,
  0x00, 0x00, 0x00, 0x00, 0x00, 0x00, 0x00, 0x00, 0x00, 0x00, 0x00, 0x00,
  0x00, 0x00, 0x00, 0x00, 0x00, 0x00, 0x00, 0x00, 0x00, 0x00, 0x00, 0x00,
  0x00, 0x00, 0x00, 0x00, 0x00, 0x00, 0x00, 0x00, 0x00, 0x00, 0x00, 0x00,
  0x00, 0x00, 0x00, 0x00, 0x00, 0x00, 0x00, 0x00, 0x00, 0x00, 0x00, 0x00,
  0x00, 0x00, 0x00, 0x00, 0x00, 0x00, 0x00, 0x00, 0x00, 0x00, 0x00, 0x00,
  0x00, 0x00, 0x00, 0x00, 0x00, 0x00, 0x00, 0x00, 0x00, 0x00, 0x00, 0x00,
  0x00, 0x00, 0x00, 0x00, 0x00, 0x00, 0x00, 0x00, 0x00, 0x00, 0x00, 0x00,
  0x00, 0x00, 0x00, 0x00, 0x00, 0x00, 0x00, 0x00, 0x00, 0x00, 0x00, 0x00,
  0x00, 0x00, 0x00, 0x00, 0x00, 0x00, 0x00, 0x00, 0x00, 0x00, 0x00, 0x00,
  0x00, 0x00, 0x00, 0x00, 0x00, 0x00, 0x00, 0x00, 0x00, 0x00, 0x00, 0x00,
  0x00, 0x00, 0x00, 0x00, 0x00, 0x00, 0x00, 0x00, 0x00, 0x00, 0x00, 0x00,
  0x00, 0x00, 0x00, 0x00, 0x00, 0x00, 0x00, 0x00, 0x00, 0x00, 0x00, 0x00,
  0x00, 0x00, 0x00, 0x00, 0x00, 0x00, 0x00, 0x00, 0x00, 0x00, 0x00, 0x00,
  0x00, 0x00, 0x00, 0x00, 0x00, 0x00, 0x00, 0x00, 0x00, 0x00, 0x00, 0x00,
  0x00, 0x00, 0x00, 0x00, 0x00, 0x00, 0x00, 0x00, 0x00, 0x00, 0x00, 0x00,
  0x00, 0x00, 0x00, 0x00, 0x00, 0x00, 0x00, 0x00, 0x00, 0x00, 0x00, 0x00,
  0x20, 0x00, 0x00, 0x00, 0xee, 0x47, 0xbc, 0x3c, 0xd9, 0x39, 0x9d, 0x3c,
  0x1d, 0x57, 0x0a, 0x3d, 0x2b, 0x03, 0x56, 0x3d, 0xd4, 0x6c, 0xed, 0x3c,
  0x16, 0xdf, 0x1d, 0x3d, 0xeb, 0x8f, 0x34, 0x3d, 0x24, 0xcd, 0x08, 0x3d,
  0x6f, 0x1c, 0xd3, 0x3c, 0x9d, 0x62, 0xe5, 0x3c, 0xa6, 0x2e, 0x46, 0x3d,
  0xe4, 0xf6, 0xf4, 0x3c, 0xe2, 0x23, 0x33, 0x3d, 0xa3, 0x0f, 0xef, 0x3c,
  0x86, 0xa5, 0x00, 0x3d, 0xd1, 0xc9, 0x63, 0x3d, 0xb9, 0x36, 0x2d, 0x3d,
  0xa6, 0xd5, 0x19, 0x3d, 0x7f, 0x62, 0x59, 0x3d, 0x3e, 0x22, 0x00, 0x3d,
  0x72, 0x5b, 0xd8, 0x3c, 0xf7, 0x91, 0x00, 0x3d, 0x30, 0xb8, 0x6a, 0x3d,
  0xe0, 0x6d, 0xce, 0x3c, 0xfd, 0xef, 0xa3, 0x3c, 0xf7, 0x9d, 0x3f, 0x3d,
  0x85, 0xbd, 0x58, 0x3d, 0xa6, 0x51, 0xfb, 0x3c, 0x14, 0xe7, 0x76, 0x3d,
  0x2c, 0x85, 0xd4, 0x3c, 0x2a, 0x31, 0xad, 0x3c, 0x74, 0xc9, 0x21, 0x3d,
  0x38, 0x00, 0x00, 0x00, 0x64, 0x68, 0x74, 0x32, 0x30, 0x5f, 0x61, 0x6e,
  0x6f, 0x6d, 0x61, 0x6c, 0x79, 0x5f, 0x76, 0x32, 0x5f, 0x31, 0x2f, 0x62,
  0x61, 0x74, 0x63, 0x68, 0x5f, 0x6e, 0x6f, 0x72, 0x6d, 0x61, 0x6c, 0x69,
  0x7a, 0x61, 0x74, 0x69, 0x6f, 0x6e, 0x5f, 0x31, 0x2f, 0x62, 0x61, 0x74,
  0x63, 0x68, 0x6e, 0x6f, 0x72, 0x6d, 0x2f, 0x6d, 0x75, 0x6c, 0x5f, 0x31,
  0x00, 0x00, 0x00, 0x00, 0x02, 0x00, 0x00, 0x00, 0x20, 0x00, 0x00, 0x00,
  0x06, 0x00, 0x00, 0x00, 0x02, 0xf9, 0xff, 0xff, 0x00, 0x00, 0x00, 0x01,
  0x14, 0x00, 0x00, 0x00, 0xa8, 0x01, 0x00, 0x00, 0x08, 0x00, 0x00, 0x00,
  0x00, 0x00, 0x00, 0x02, 0x00, 0x02, 0x00, 0x00, 0xec, 0xf8, 0xff, 0xff,
  0x08, 0x00, 0x00, 0x00, 0x0c, 0x01, 0x00, 0x00, 0x20, 0x00, 0x00, 0x00,
  0x00, 0x00, 0x00, 0x00, 0x00, 0x00, 0x00, 0x00, 0x00, 0x00, 0x00, 0x00,
  0x00, 0x00, 0x00, 0x00, 0x00, 0x00, 0x00, 0x00, 0x00, 0x00, 0x00, 0x00,
  0x00, 0x00, 0x00, 0x00, 0x00, 0x00, 0x00, 0x00, 0x00, 0x00, 0x00, 0x00,
  0x00, 0x00, 0x00, 0x00, 0x00, 0x00, 0x00, 0x00, 0x00, 0x00, 0x00, 0x00,
  0x00, 0x00, 0x00, 0x00, 0x00, 0x00, 0x00, 0x00, 0x00, 0x00, 0x00, 0x00,
  0x00, 0x00, 0x00, 0x00, 0x00, 0x00, 0x00, 0x00, 0x00, 0x00, 0x00, 0x00,
  0x00, 0x00, 0x00, 0x00, 0x00, 0x00, 0x00, 0x00, 0x00, 0x00, 0x00, 0x00,
  0x00, 0x00, 0x00, 0x00, 0x00, 0x00, 0x00, 0x00, 0x00, 0x00, 0x00, 0x00,
  0x00, 0x00, 0x00, 0x00, 0x00, 0x00, 0x00, 0x00, 0x00, 0x00, 0x00, 0x00,
  0x00, 0x00, 0x00, 0x00, 0x00, 0x00, 0x00, 0x00, 0x00, 0x00, 0x00, 0x00,
  0x00, 0x00, 0x00, 0x00, 0x00, 0x00, 0x00, 0x00, 0x00, 0x00, 0x00, 0x00,
  0x00, 0x00, 0x00, 0x00, 0x00, 0x00, 0x00, 0x00, 0x00, 0x00, 0x00, 0x00,
  0x00, 0x00, 0x00, 0x00, 0x00, 0x00, 0x00, 0x00, 0x00, 0x00, 0x00, 0x00,
  0x00, 0x00, 0x00, 0x00, 0x00, 0x00, 0x00, 0x00, 0x00, 0x00, 0x00, 0x00,
  0x00, 0x00, 0x00, 0x00, 0x00, 0x00, 0x00, 0x00, 0x00, 0x00, 0x00, 0x00,
  0x00, 0x00, 0x00, 0x00, 0x00, 0x00, 0x00, 0x00, 0x00, 0x00, 0x00, 0x00,
  0x00, 0x00, 0x00, 0x00, 0x00, 0x00, 0x00, 0x00, 0x00, 0x00, 0x00, 0x00,
  0x00, 0x00, 0x00, 0x00, 0x00, 0x00, 0x00, 0x00, 0x00, 0x00, 0x00, 0x00,
  0x00, 0x00, 0x00, 0x00, 0x00, 0x00, 0x00, 0x00, 0x00, 0x00, 0x00, 0x00,
  0x00, 0x00, 0x00, 0x00, 0x00, 0x00, 0x00, 0x00, 0x00, 0x00, 0x00, 0x00,
  0x00, 0x00, 0x00, 0x00, 0x00, 0x00, 0x00, 0x00, 0x00, 0x00, 0x00, 0x00,
  0x00, 0x00, 0x00, 0x00, 0x00, 0x00, 0x00, 0x00, 0x20, 0x00, 0x00, 0x00,
  0xf4, 0x04, 0xbd, 0x38, 0xb1, 0xd7, 0x9d, 0x38, 0x00, 0xe2, 0x0a, 0x39,
  0x06, 0xda, 0x56, 0x39, 0x30, 0x5b, 0xee, 0x38, 0x94, 0x7d, 0x1e, 0x39,
  0x31, 0x45, 0x35, 0x39, 0x7b, 0x56, 0x09, 0x39, 0x60, 0xf0, 0xd3, 0x38,
  0xe7, 0x48, 0xe6, 0x38, 0x9c, 0xf5, 0x46, 0x39, 0xd2, 0xec, 0xf5, 0x38,
  0xba, 0xd7, 0x33, 0x39, 0xa4, 0xff, 0xef, 0x38, 0xad, 0x26, 0x01, 0x39,
  0x80, 0xae, 0x64, 0x39, 0x9e, 0xe4, 0x2d, 0x39, 0x17, 0x70, 0x1a, 0x39,
  0xbd, 0x3c, 0x5a, 0x39, 0xe1, 0xa2, 0x00, 0x39, 0xa7, 0x34, 0xd9, 0x38,
  0x0b, 0x13, 0x01, 0x39, 0xd5, 0xa3, 0x6b, 0x39, 0x1e, 0x3d, 0xcf, 0x38,
  0x92, 0x94, 0xa4, 0x38, 0x56, 0x5e, 0x40, 0x39, 0x1d, 0x97, 0x59, 0x39,
  0xf5, 0x4d, 0xfc, 0x38, 0xf4, 0xde, 0x77, 0x39, 0x87, 0x5a, 0xd5, 0x38,
  0x0a, 0xdf, 0xad, 0x38, 0xe1, 0x6b, 0x22, 0x39, 0x5d, 0x00, 0x00, 0x00,
  0x64, 0x68, 0x74, 0x32, 0x30, 0x5f, 0x61, 0x6e, 0x6f, 0x6d, 0x61, 0x6c,
  0x79, 0x5f, 0x76, 0x32, 0x5f, 0x31, 0x2f, 0x61, 0x63, 0x74, 0x69, 0x76,
  0x61, 0x74, 0x69, 0x6f, 0x6e, 0x5f, 0x31, 0x2f, 0x52, 0x65, 0x6c, 0x75,
  0x3b, 0x64, 0x68, 0x74, 0x32, 0x30, 0x5f, 0x61, 0x6e, 0x6f, 0x6d, 0x61,
  0x6c, 0x79, 0x5f, 0x76, 0x32, 0x5f, 0x31, 0x2f, 0x62, 0x61, 0x74, 0x63,
  0x68, 0x5f, 0x6e, 0x6f, 0x72, 0x6d, 0x61, 0x6c, 0x69, 0x7a, 0x61, 0x74,
  0x69, 0x6f, 0x6e, 0x5f, 0x31, 0x2f, 0x62, 0x61, 0x74, 0x63, 0x68, 0x6e,
  0x6f, 0x72, 0x6d, 0x2f, 0x61, 0x64, 0x64, 0x5f, 0x31, 0x00, 0x00, 0x00,
  0x01, 0x00, 0x00, 0x00, 0x20, 0x00, 0x00, 0x00, 0x22, 0xfb, 0xff, 0xff,
  0x00, 0x00, 0x00, 0x01, 0x14, 0x00, 0x00, 0x00, 0xe8, 0x00, 0x00, 0x00,
  0x07, 0x00, 0x00, 0x00, 0x00, 0x00, 0x00, 0x09, 0x1c, 0x01, 0x00, 0x00,
  0x0c, 0xfb, 0xff, 0xff, 0x08, 0x00, 0x00, 0x00, 0x8c, 0x00, 0x00, 0x00,
  0x10, 0x00, 0x00, 0x00, 0x00, 0x00, 0x00, 0x00, 0x00, 0x00, 0x00, 0x00,
  0x00, 0x00, 0x00, 0x00, 0x00, 0x00, 0x00, 0x00, 0x00, 0x00, 0x00, 0x00,
  0x00, 0x00, 0x00, 0x00, 0x00, 0x00, 0x00, 0x00, 0x00, 0x00, 0x00, 0x00,
  0x00, 0x00, 0x00, 0x00, 0x00, 0x00, 0x00, 0x00, 0x00, 0x00, 0x00, 0x00,
  0x00, 0x00, 0x00, 0x00, 0x00, 0x00, 0x00, 0x00, 0x00, 0x00, 0x00, 0x00,
  0x00, 0x00, 0x00, 0x00, 0x00, 0x00, 0x00, 0x00, 0x00, 0x00, 0x00, 0x00,
  0x00, 0x00, 0x00, 0x00, 0x00, 0x00, 0x00, 0x00, 0x00, 0x00, 0x00, 0x00,
  0x00, 0x00, 0x00, 0x00, 0x00, 0x00, 0x00, 0x00, 0x00, 0x00, 0x00, 0x00,
  0x00, 0x00, 0x00, 0x00, 0x00, 0x00, 0x00, 0x00, 0x00, 0x00, 0x00, 0x00,
  0x00, 0x00, 0x00, 0x00, 0x00, 0x00, 0x00, 0x00, 0x00, 0x00, 0x00, 0x00,
  0x00, 0x00, 0x00, 0x00, 0x00, 0x00, 0x00, 0x00, 0x00, 0x00, 0x00, 0x00,
  0x00, 0x00, 0x00, 0x00, 0x10, 0x00, 0x00, 0x00, 0xeb, 0xb6, 0x71, 0x3b,
  0xfe, 0xe5, 0x81, 0x3b, 0x17, 0x5b, 0x47, 0x3b, 0x3d, 0xe1, 0x62, 0x3b,
  0x29, 0x75, 0x4f, 0x3b, 0x10, 0x8b, 0x79, 0x3b, 0xf3, 0xef, 0x68, 0x3b,
  0x9f, 0xe5, 0x8f, 0x3b, 0x0f, 0x09, 0x48, 0x3b, 0x21, 0x4f, 0x46, 0x3b,
  0xf8, 0x36, 0x4d, 0x3b, 0x16, 0xd2, 0x73, 0x3b, 0xfe, 0xed, 0x40, 0x3b,
  0xb8, 0xb5, 0x3f, 0x3b, 0x49, 0xfe, 0x54, 0x3b, 0xde, 0x9d, 0x6c, 0x3b,
  0x3a, 0x00, 0x00, 0x00, 0x64, 0x68, 0x74, 0x32, 0x30, 0x5f, 0x61, 0x6e,
  0x6f, 0x6d, 0x61, 0x6c, 0x79, 0x5f, 0x76, 0x32, 0x5f, 0x31, 0x2f, 0x62,
  0x61, 0x74, 0x63, 0x68, 0x5f, 0x6e, 0x6f, 0x72, 0x6d, 0x61, 0x6c, 0x69,
  0x7a, 0x61, 0x74, 0x69, 0x6f, 0x6e, 0x5f, 0x31, 0x5f, 0x32, 0x2f, 0x62,
  0x61, 0x74, 0x63, 0x68, 0x6e, 0x6f, 0x72, 0x6d, 0x2f, 0x6d, 0x75, 0x6c,
  0x5f, 0x31, 0x00, 0x00, 0x02, 0x00, 0x00, 0x00, 0x10, 0x00, 0x00, 0x00,
  0x20, 0x00, 0x00, 0x00, 0x62, 0xfc, 0xff, 0xff, 0x00, 0x00, 0x00, 0x01,
  0x14, 0x00, 0x00, 0x00, 0xe4, 0x00, 0x00, 0x00, 0x06, 0x00, 0x00, 0x00,
  0x00, 0x00, 0x00, 0x02, 0x40, 0x01, 0x00, 0x00, 0x4c, 0xfc, 0xff, 0xff,
  0x08, 0x00, 0x00, 0x00, 0x88, 0x00, 0x00, 0x00, 0x10, 0x00, 0x00, 0x00,
  0x00, 0x00, 0x00, 0x00, 0x00, 0x00, 0x00, 0x00, 0x00, 0x00, 0x00, 0x00,
  0x00, 0x00, 0x00, 0x00, 0x00, 0x00, 0x00, 0x00, 0x00, 0x00, 0x00, 0x00,
  0x00, 0x00, 0x00, 0x00, 0x00, 0x00, 0x00, 0x00, 0x00, 0x00, 0x00, 0x00,
  0x00, 0x00, 0x00, 0x00, 0x00, 0x00, 0x00, 0x00, 0x00, 0x00, 0x00, 0x00,
  0x00, 0x00, 0x00, 0x00, 0x00, 0x00, 0x00, 0x00, 0x00, 0x00, 0x00, 0x00,
  0x00, 0x00, 0x00, 0x00, 0x00, 0x00, 0x00, 0x00, 0x00, 0x00, 0x00, 0x00,
  0x00, 0x00, 0x00, 0x00, 0x00, 0x00, 0x00, 0x00, 0x00, 0x00, 0x00, 0x00,
  0x00, 0x00, 0x00, 0x00, 0x00, 0x00, 0x00, 0x00, 0x00, 0x00, 0x00, 0x00,
  0x00, 0x00, 0x00, 0x00, 0x00, 0x00, 0x00, 0x00, 0x00, 0x00, 0x00, 0x00,
  0x00, 0x00, 0x00, 0x00, 0x00, 0x00, 0x00, 0x00, 0x00, 0x00, 0x00, 0x00,
  0x00, 0x00, 0x00, 0x00, 0x00, 0x00, 0x00, 0x00, 0x10, 0x00, 0x00, 0x00,
  0x3c, 0xe0, 0x9e, 0x38, 0xdd, 0xc2, 0xaa, 0x38, 0xb9, 0x08, 0x83, 0x38,
  0x11, 0x20, 0x95, 0x38, 0xfc, 0x5b, 0x88, 0x38, 0x89, 0x05, 0xa4, 0x38,
  0x54, 0x1b, 0x99, 0x38, 0xcf, 0x29, 0xbd, 0x38, 0x12, 0x7b, 0x83, 0x38,
  0x98, 0x58, 0x82, 0x38, 0x93, 0xe2, 0x86, 0x38, 0x9f, 0x42, 0xa0, 0x38,
  0xd7, 0x9e, 0x7d, 0x38, 0x56, 0x04, 0x7c, 0x38, 0x71, 0xff, 0x8b, 0x38,
  0x71, 0x86, 0x9b, 0x38, 0x61, 0x00, 0x00, 0x00, 0x64, 0x68, 0x74, 0x32,
  0x30, 0x5f, 0x61, 0x6e, 0x6f, 0x6d, 0x61, 0x6c, 0x79, 0x5f, 0x76, 0x32,
  0x5f, 0x31, 0x2f, 0x61, 0x63, 0x74, 0x69, 0x76, 0x61, 0x74, 0x69, 0x6f,
  0x6e, 0x5f, 0x31, 0x5f, 0x32, 0x2f, 0x52, 0x65, 0x6c, 0x75, 0x3b, 0x64,
  0x68, 0x74, 0x32, 0x30, 0x5f, 0x61, 0x6e, 0x6f, 0x6d, 0x61, 0x6c, 0x79,
  0x5f, 0x76, 0x32, 0x5f, 0x31, 0x2f, 0x62, 0x61, 0x74, 0x63, 0x68, 0x5f,
  0x6e, 0x6f, 0x72, 0x6d, 0x61, 0x6c, 0x69, 0x7a, 0x61, 0x74, 0x69, 0x6f,
  0x6e, 0x5f, 0x31, 0x5f, 0x32, 0x2f, 0x62, 0x61, 0x74, 0x63, 0x68, 0x6e,
  0x6f, 0x72, 0x6d, 0x2f, 0x61, 0x64, 0x64, 0x5f, 0x31, 0x00, 0x00, 0x00,
  0x01, 0x00, 0x00, 0x00, 0x10, 0x00, 0x00, 0x00, 0xc2, 0xfd, 0xff, 0xff,
  0x00, 0x00, 0x00, 0x01, 0x14, 0x00, 0x00, 0x00, 0x88, 0x00, 0x00, 0x00,
  0x05, 0x00, 0x00, 0x00, 0x00, 0x00, 0x00, 0x09, 0xa4, 0x00, 0x00, 0x00,
  0xac, 0xfd, 0xff, 0xff, 0x08, 0x00, 0x00, 0x00, 0x4c, 0x00, 0x00, 0x00,
  0x08, 0x00, 0x00, 0x00, 0x00, 0x00, 0x00, 0x00, 0x00, 0x00, 0x00, 0x00,
  0x00, 0x00, 0x00, 0x00, 0x00, 0x00, 0x00, 0x00, 0x00, 0x00, 0x00, 0x00,
  0x00, 0x00, 0x00, 0x00, 0x00, 0x00, 0x00, 0x00, 0x00, 0x00, 0x00, 0x00,
  0x00, 0x00, 0x00, 0x00, 0x00, 0x00, 0x00, 0x00, 0x00, 0x00, 0x00, 0x00,
  0x00, 0x00, 0x00, 0x00, 0x00, 0x00, 0x00, 0x00, 0x00, 0x00, 0x00, 0x00,
  0x00, 0x00, 0x00, 0x00, 0x00, 0x00, 0x00, 0x00, 0x00, 0x00, 0x00, 0x00,
  0x08, 0x00, 0x00, 0x00, 0x42, 0x81, 0xa1, 0x3b, 0x75, 0x87, 0xa9, 0x3b,
  0x0a, 0x56, 0xf0, 0x3b, 0xd0, 0x64, 0x89, 0x3b, 0xe7, 0x75, 0x7f, 0x3b,
  0x4c, 0xf4, 0xb2, 0x3b, 0x03, 0xc6, 0x94, 0x3b, 0x5c, 0x9c, 0x9e, 0x3b,
  0x23, 0x00, 0x00, 0x00, 0x64, 0x68, 0x74, 0x32, 0x30, 0x5f, 0x61, 0x6e,
  0x6f, 0x6d, 0x61, 0x6c, 0x79, 0x5f, 0x76, 0x32, 0x5f, 0x31, 0x2f, 0x64,
  0x65, 0x6e, 0x73, 0x65, 0x5f, 0x32, 0x5f, 0x31, 0x2f, 0x4d, 0x61, 0x74,
  0x4d, 0x75, 0x6c, 0x00, 0x02, 0x00, 0x00, 0x00, 0x08, 0x00, 0x00, 0x00,
  0x10, 0x00, 0x00, 0x00, 0x8a, 0xfe, 0xff, 0xff, 0x00, 0x00, 0x00, 0x01,
  0x14, 0x00, 0x00, 0x00, 0x88, 0x00, 0x00, 0x00, 0x04, 0x00, 0x00, 0x00,
  0x00, 0x00, 0x00, 0x02, 0xc8, 0x00, 0x00, 0x00, 0x74, 0xfe, 0xff, 0xff,
  0x08, 0x00, 0x00, 0x00, 0x4c, 0x00, 0x00, 0x00, 0x08, 0x00, 0x00, 0x00,
  0x00, 0x00, 0x00, 0x00, 0x00, 0x00, 0x00, 0x00, 0x00, 0x00, 0x00, 0x00,
  0x00, 0x00, 0x00, 0x00, 0x00, 0x00, 0x00, 0x00, 0x00, 0x00, 0x00, 0x00,
  0x00, 0x00, 0x00, 0x00, 0x00, 0x00, 0x00, 0x00, 0x00, 0x00, 0x00, 0x00,
  0x00, 0x00, 0x00, 0x00, 0x00, 0x00, 0x00, 0x00, 0x00, 0x00, 0x00, 0x00,
  0x00, 0x00, 0x00, 0x00, 0x00, 0x00, 0x00, 0x00, 0x00, 0x00, 0x00, 0x00,
  0x00, 0x00, 0x00, 0x00, 0x00, 0x00, 0x00, 0x00, 0x08, 0x00, 0x00, 0x00,
  0x9b, 0x3b, 0xd8, 0x38, 0xe6, 0xf9, 0xe2, 0x38, 0x72, 0xe3, 0x20, 0x39,
  0x8d, 0xf3, 0xb7, 0x38, 0x65, 0x03, 0xab, 0x38, 0x5b, 0x98, 0xef, 0x38,
  0xed, 0x2f, 0xc7, 0x38, 0xa5, 0x5b, 0xd4, 0x38, 0x46, 0x00, 0x00, 0x00,
  0x64, 0x68, 0x74, 0x32, 0x30, 0x5f, 0x61, 0x6e, 0x6f, 0x6d, 0x61, 0x6c,
  0x79, 0x5f, 0x76, 0x32, 0x5f, 0x31, 0x2f, 0x64, 0x65, 0x6e, 0x73, 0x65,
  0x5f, 0x32, 0x5f, 0x31, 0x2f, 0x52, 0x65, 0x6c, 0x75, 0x3b, 0x64, 0x68,
  0x74, 0x32, 0x30, 0x5f, 0x61, 0x6e, 0x6f, 0x6d, 0x61, 0x6c, 0x79, 0x5f,
  0x76, 0x32, 0x5f, 0x31, 0x2f, 0x64, 0x65, 0x6e, 0x73, 0x65, 0x5f, 0x32,
  0x5f, 0x31, 0x2f, 0x42, 0x69, 0x61, 0x73, 0x41, 0x64, 0x64, 0x00, 0x00,
  0x01, 0x00, 0x00, 0x00, 0x08, 0x00, 0x00, 0x00, 0x72, 0xff, 0xff, 0xff,
  0x00, 0x00, 0x00, 0x01, 0x14, 0x00, 0x00, 0x00, 0x4c, 0x00, 0x00, 0x00,
  0x03, 0x00, 0x00, 0x00, 0x00, 0x00, 0x00, 0x09, 0x68, 0x00, 0x00, 0x00,
  0x5c, 0xff, 0xff, 0xff, 0x08, 0x00, 0x00, 0x00, 0x24, 0x00, 0x00, 0x00,
  0x03, 0x00, 0x00, 0x00, 0x00, 0x00, 0x00, 0x00, 0x00, 0x00, 0x00, 0x00,
  0x00, 0x00, 0x00, 0x00, 0x00, 0x00, 0x00, 0x00, 0x00, 0x00, 0x00, 0x00,
  0x00, 0x00, 0x00, 0x00, 0x00, 0x00, 0x00, 0x00, 0x03, 0x00, 0x00, 0x00,
  0x5e, 0x4e, 0xee, 0x3b, 0x2d, 0x74, 0xa8, 0x3b, 0x70, 0xf8, 0xda, 0x3b,
  0x23, 0x00, 0x00, 0x00, 0x64, 0x68, 0x74, 0x32, 0x30, 0x5f, 0x61, 0x6e,
  0x6f, 0x6d, 0x61, 0x6c, 0x79, 0x5f, 0x76, 0x32, 0x5f, 0x31, 0x2f, 0x64,
  0x65, 0x6e, 0x73, 0x65, 0x5f, 0x33, 0x5f, 0x31, 0x2f, 0x4d, 0x61, 0x74,
  0x4d, 0x75, 0x6c, 0x00, 0x02, 0x00, 0x00, 0x00, 0x03, 0x00, 0x00, 0x00,
  0x08, 0x00, 0x00, 0x00, 0x00, 0x00, 0x16, 0x00, 0x1c, 0x00, 0x18, 0x00,
  0x17, 0x00, 0x10, 0x00, 0x0c, 0x00, 0x08, 0x00, 0x00, 0x00, 0x00, 0x00,
  0x00, 0x00, 0x07, 0x00, 0x16, 0x00, 0x00, 0x00, 0x00, 0x00, 0x00, 0x01,
  0x20, 0x00, 0x00, 0x00, 0x58, 0x00, 0x00, 0x00, 0x02, 0x00, 0x00, 0x00,
  0x00, 0x00, 0x00, 0x02, 0x78, 0x00, 0x00, 0x00, 0x0c, 0x00, 0x0c, 0x00,
  0x00, 0x00, 0x00, 0x00, 0x08, 0x00, 0x04, 0x00, 0x0c, 0x00, 0x00, 0x00,
  0x08, 0x00, 0x00, 0x00, 0x24, 0x00, 0x00, 0x00, 0x03, 0x00, 0x00, 0x00,
  0x00, 0x00, 0x00, 0x00, 0x00, 0x00, 0x00, 0x00, 0x00, 0x00, 0x00, 0x00,
  0x00, 0x00, 0x00, 0x00, 0x00, 0x00, 0x00, 0x00, 0x00, 0x00, 0x00, 0x00,
  0x00, 0x00, 0x00, 0x00, 0x03, 0x00, 0x00, 0x00, 0xcb, 0x21, 0x87, 0x39,
  0x51, 0x0b, 0x3f, 0x39, 0xda, 0x55, 0x78, 0x39, 0x24, 0x00, 0x00, 0x00,
  0x64, 0x68, 0x74, 0x32, 0x30, 0x5f, 0x61, 0x6e, 0x6f, 0x6d, 0x61, 0x6c,
  0x79, 0x5f, 0x76, 0x32, 0x5f, 0x31, 0x2f, 0x64, 0x65, 0x6e, 0x73, 0x65,
  0x5f, 0x33, 0x5f, 0x31, 0x2f, 0x42, 0x69, 0x61, 0x73, 0x41, 0x64, 0x64,
  0x00, 0x00, 0x00, 0x00, 0x01, 0x00, 0x00, 0x00, 0x03, 0x00, 0x00, 0x00,
  0x00, 0x00, 0x16, 0x00, 0x1c, 0x00, 0x18, 0x00, 0x00, 0x00, 0x14, 0x00,
  0x10, 0x00, 0x0c, 0x00, 0x00, 0x00, 0x00, 0x00, 0x08, 0x00, 0x07, 0x00,
  0x16, 0x00, 0x00, 0x00, 0x00, 0x00, 0x00, 0x01, 0x14, 0x00, 0x00, 0x00,
  0x20, 0x00, 0x00, 0x00, 0x20, 0x00, 0x00, 0x00, 0x01, 0x00, 0x00, 0x00,
  0x3c, 0x00, 0x00, 0x00, 0x02, 0x00, 0x00, 0x00, 0xff, 0xff, 0xff, 0xff,
  0x06, 0x00, 0x00, 0x00, 0x04, 0x00, 0x04, 0x00, 0x04, 0x00, 0x00, 0x00,
  0x1e, 0x00, 0x00, 0x00, 0x73, 0x65, 0x72, 0x76, 0x69, 0x6e, 0x67, 0x5f,
  0x64, 0x65, 0x66, 0x61, 0x75, 0x6c, 0x74, 0x5f, 0x6b, 0x65, 0x72, 0x61,
  0x73, 0x5f, 0x74, 0x65, 0x6e, 0x73, 0x6f, 0x72, 0x3a, 0x30, 0x00, 0x00,
  0x02, 0x00, 0x00, 0x00, 0x01, 0x00, 0x00, 0x00, 0x06, 0x00, 0x00, 0x00,
  0x04, 0x00, 0x00, 0x00, 0x58, 0x00, 0x00, 0x00, 0x38, 0x00, 0x00, 0x00,
  0x18, 0x00, 0x00, 0x00, 0x04, 0x00, 0x00, 0x00, 0xe0, 0xff, 0xff, 0xff,
  0x06, 0x00, 0x00, 0x00, 0x02, 0x00, 0x00, 0x00, 0x00, 0x00, 0x00, 0x06,
  0xf0, 0xff, 0xff, 0xff, 0x19, 0x00, 0x00, 0x00, 0x02, 0x00, 0x00, 0x00,
  0x00, 0x00, 0x00, 0x19, 0x0c, 0x00, 0x10, 0x00, 0x0f, 0x00, 0x00, 0x00,
  0x08, 0x00, 0x04, 0x00, 0x0c, 0x00, 0x00, 0x00, 0x09, 0x00, 0x00, 0x00,
  0x04, 0x00, 0x00, 0x00, 0x00, 0x00, 0x00, 0x09, 0x0c, 0x00, 0x0c, 0x00,
  0x0b, 0x00, 0x00, 0x00, 0x00, 0x00, 0x04, 0x00, 0x0c, 0x00, 0x00, 0x00,
  0x72, 0x00, 0x00, 0x00, 0x00, 0x00, 0x00, 0x72
};
