const unsigned char model[] = {
  0x1c, 0x00, 0x00, 0x00, 0x54, 0x46, 0x4c, 0x33, 0x14, 0x00, 0x20, 0x00,
  0x1c, 0x00, 0x18, 0x00, 0x14, 0x00, 0x10, 0x00, 0x0c, 0x00, 0x00, 0x00,
  0x08, 0x00, 0x04, 0x00, 0x14, 0x00, 0x00, 0x00, 0x1c, 0x00, 0x00, 0x00,
  0x8c, 0x00, 0x00, 0x00, 0x0c, 0x01, 0x00, 0x00, 0xf0, 0x3b, 0x00, 0x00,
  0x00, 0x3c, 0x00, 0x00, 0x28, 0x50, 0x00, 0x00, 0x03, 0x00, 0x00, 0x00,
  0x01, 0x00, 0x00, 0x00, 0x04, 0x00, 0x00, 0x00, 0x0a, 0xc3, 0xff, 0xff,
  0x0c, 0x00, 0x00, 0x00, 0x1c, 0x00, 0x00, 0x00, 0x3c, 0x00, 0x00, 0x00,
  0x0f, 0x00, 0x00, 0x00, 0x73, 0x65, 0x72, 0x76, 0x69, 0x6e, 0x67, 0x5f,
  0x64, 0x65, 0x66, 0x61, 0x75, 0x6c, 0x74, 0x00, 0x01, 0x00, 0x00, 0x00,
  0x04, 0x00, 0x00, 0x00, 0x68, 0xff, 0xff, 0xff, 0x16, 0x00, 0x00, 0x00,
  0x04, 0x00, 0x00, 0x00, 0x08, 0x00, 0x00, 0x00, 0x6f, 0x75, 0x74, 0x70,
  0x75, 0x74, 0x5f, 0x30, 0x00, 0x00, 0x00, 0x00, 0x01, 0x00, 0x00, 0x00,
  0x04, 0x00, 0x00, 0x00, 0x12, 0xc3, 0xff, 0xff, 0x04, 0x00, 0x00, 0x00,
  0x0c, 0x00, 0x00, 0x00, 0x6b, 0x65, 0x72, 0x61, 0x73, 0x5f, 0x74, 0x65,
  0x6e, 0x73, 0x6f, 0x72, 0x00, 0x00, 0x00, 0x00, 0x03, 0x00, 0x00, 0x00,
  0x5c, 0x00, 0x00, 0x00, 0x2c, 0x00, 0x00, 0x00, 0x04, 0x00, 0x00, 0x00,
  0xb8, 0xff, 0xff, 0xff, 0x1a, 0x00, 0x00, 0x00, 0x04, 0x00, 0x00, 0x00,
  0x13, 0x00, 0x00, 0x00, 0x43, 0x4f, 0x4e, 0x56, 0x45, 0x52, 0x53, 0x49,
  0x4f, 0x4e, 0x5f, 0x4d, 0x45, 0x54, 0x41, 0x44, 0x41, 0x54, 0x41, 0x00,
  0xdc, 0xff, 0xff, 0xff, 0x19, 0x00, 0x00, 0x00, 0x04, 0x00, 0x00, 0x00,
  0x13, 0x00, 0x00, 0x00, 0x6d, 0x69, 0x6e, 0x5f, 0x72, 0x75, 0x6e, 0x74,
  0x69, 0x6d, 0x65, 0x5f, 0x76, 0x65, 0x72, 0x73, 0x69, 0x6f, 0x6e, 0x00,
  0x08, 0x00, 0x0c, 0x00, 0x08, 0x00, 0x04, 0x00, 0x08, 0x00, 0x00, 0x00,
  0x18, 0x00, 0x00, 0x00, 0x04, 0x00, 0x00, 0x00, 0x13, 0x00, 0x00, 0x00,
  0x6d, 0x69, 0x6e, 0x5f, 0x72, 0x75, 0x6e, 0x74, 0x69, 0x6d, 0x65, 0x5f,
  0x76, 0x65, 0x72, 0x73, 0x69, 0x6f, 0x6e, 0x00, 0x1b, 0x00, 0x00, 0x00,
  0xe0, 0x3a, 0x00, 0x00, 0xd8, 0x3a, 0x00, 0x00, 0xc4, 0x3a, 0x00, 0x00,
  0xb0, 0x3a, 0x00, 0x00, 0x9c, 0x3a, 0x00, 0x00, 0x64, 0x3a, 0x00, 0x00,
  0x14, 0x39, 0x00, 0x00, 0x84, 0x38, 0x00, 0x00, 0x74, 0x06, 0x00, 0x00,
  0x24, 0x06, 0x00, 0x00, 0x94, 0x01, 0x00, 0x00, 0x64, 0x01, 0x00, 0x00,
  0x0c, 0x01, 0x00, 0x00, 0x04, 0x01, 0x00, 0x00, 0xfc, 0x00, 0x00, 0x00,
  0xf4, 0x00, 0x00, 0x00, 0xec, 0x00, 0x00, 0x00, 0xe4, 0x00, 0x00, 0x00,
  0xdc, 0x00, 0x00, 0x00, 0xd4, 0x00, 0x00, 0x00, 0xcc, 0x00, 0x00, 0x00,
  0xc4, 0x00, 0x00, 0x00, 0xbc, 0x00, 0x00, 0x00, 0xb4, 0x00, 0x00, 0x00,
  0x94, 0x00, 0x00, 0x00, 0x74, 0x00, 0x00, 0x00, 0x04, 0x00, 0x00, 0x00,
  0x22, 0xc4, 0xff, 0xff, 0x04, 0x00, 0x00, 0x00, 0x60, 0x00, 0x00, 0x00,
  0x0c, 0x00, 0x00, 0x00, 0x08, 0x00, 0x0e, 0x00, 0x08, 0x00, 0x04, 0x00,
  0x08, 0x00, 0x00, 0x00, 0x10, 0x00, 0x00, 0x00, 0x28, 0x00, 0x00, 0x00,
  0x00, 0x00, 0x06, 0x00, 0x08, 0x00, 0x04, 0x00, 0x06, 0x00, 0x00, 0x00,
  0x04, 0x00, 0x00, 0x00, 0x01, 0x00, 0x00, 0x00, 0xeb, 0x03, 0x00, 0x00,
  0x0c, 0x00, 0x18, 0x00, 0x14, 0x00, 0x10, 0x00, 0x0c, 0x00, 0x04, 0x00,
  0x0c, 0x00, 0x00, 0x00, 0xd4, 0x9b, 0x7b, 0x5d, 0x3e, 0x4e, 0xee, 0xc8,
  0x02, 0x00, 0x00, 0x00, 0x02, 0x00, 0x00, 0x00, 0x04, 0x00, 0x00, 0x00,
  0x06, 0x00, 0x00, 0x00, 0x32, 0x2e, 0x31, 0x39, 0x2e, 0x30, 0x00, 0x00,
  0x8e, 0xc4, 0xff, 0xff, 0x04, 0x00, 0x00, 0x00, 0x10, 0x00, 0x00, 0x00,
  0x00, 0x00, 0x00, 0x00, 0x00, 0x00, 0x00, 0x00, 0x00, 0x00, 0x00, 0x00,
  0x00, 0x00, 0x00, 0x00, 0xaa, 0xc4, 0xff, 0xff, 0x04, 0x00, 0x00, 0x00,
  0x10, 0x00, 0x00, 0x00, 0x31, 0x2e, 0x31, 0x34, 0x2e, 0x30, 0x00, 0x00,
  0x00, 0x00, 0x00, 0x00, 0x00, 0x00, 0x00, 0x00, 0xc4, 0xb2, 0xff, 0xff,
  0xc8, 0xb2, 0xff, 0xff, 0xcc, 0xb2, 0xff, 0xff, 0xd0, 0xb2, 0xff, 0xff,
  0xd4, 0xb2, 0xff, 0xff, 0xd8, 0xb2, 0xff, 0xff, 0xdc, 0xb2, 0xff, 0xff,
  0xe0, 0xb2, 0xff, 0xff, 0xe4, 0xb2, 0xff, 0xff, 0xe8, 0xb2, 0xff, 0xff,
  0xec, 0xb2, 0xff, 0xff, 0xf2, 0xc4, 0xff, 0xff, 0x04, 0x00, 0x00, 0x00,
  0x48, 0x00, 0x00, 0x00, 0x23, 0xe9, 0x51, 0x7e, 0x7f, 0xf8, 0x2b, 0xfb,
  0x20, 0x72, 0x7f, 0xc8, 0x6c, 0x4c, 0x2e, 0x2e, 0x53, 0x53, 0xff, 0x4d,
  0x2d, 0x38, 0x7f, 0x66, 0x3d, 0x31, 0x2d, 0xb4, 0x30, 0x50, 0x81, 0x1d,
  0x36, 0xea, 0x57, 0x5f, 0xdf, 0x81, 0xa6, 0x4f, 0x34, 0x08, 0x32, 0x22,
  0x22, 0x22, 0xdf, 0x46, 0xfc, 0x0b, 0x4d, 0x33, 0x7f, 0x2e, 0x11, 0x5c,
  0x5f, 0x2d, 0x50, 0x3d, 0x81, 0xc0, 0xdf, 0x27, 0x5e, 0x02, 0xba, 0x9a,
  0x81, 0xca, 0xea, 0x1d, 0x46, 0xc5, 0xff, 0xff, 0x04, 0x00, 0x00, 0x00,
  0x20, 0x00, 0x00, 0x00, 0x42, 0xfd, 0xff, 0xff, 0x69, 0xfe, 0xff, 0xff,
  0x27, 0xf8, 0xff, 0xff, 0x04, 0x01, 0x00, 0x00, 0xbe, 0xff, 0xff, 0xff,
  0xf5, 0xfe, 0xff, 0xff, 0xc4, 0xff, 0xff, 0xff, 0xc1, 0x27, 0x00, 0x00,
  0x72, 0xc5, 0xff, 0xff, 0x04, 0x00, 0x00, 0x00, 0x80, 0x04, 0x00, 0x00,
  0x02, 0xfe, 0xf7, 0xfb, 0x53, 0xea, 0xfc, 0x00, 0x0c, 0x13, 0x1f, 0x0b,
  0xff, 0x13, 0xfb, 0xd3, 0xff, 0x2b, 0x2b, 0x12, 0x34, 0x06, 0x34, 0x9d,
  0xd2, 0xe2, 0xd7, 0xd3, 0x32, 0xe7, 0x10, 0xdf, 0xfa, 0xe3, 0xf1, 0xea,
  0x0a, 0xee, 0xee, 0xa2, 0x15, 0x34, 0xfd, 0x2e, 0xe5, 0x26, 0x15, 0x8e,
  0xb1, 0xee, 0xdd, 0xd0, 0xd3, 0xb6, 0x0c, 0x18, 0xf9, 0xd3, 0xd7, 0x14,
  0x81, 0xdf, 0xd4, 0xfe, 0x1c, 0x2c, 0x1b, 0x1f, 0xb8, 0x0f, 0x1f, 0xa9,
  0xeb, 0x08, 0xd3, 0x17, 0xe0, 0x17, 0xd9, 0xdd, 0xff, 0x27, 0xf3, 0x27,
  0xdb, 0xfb, 0xfc, 0xc6, 0x0f, 0x17, 0xff, 0xfb, 0xaf, 0x00, 0x06, 0xb5,
  0xed, 0x0a, 0x16, 0x16, 0xd2, 0xf9, 0xf8, 0xe2, 0xfe, 0xf0, 0x23, 0x15,
  0xb8, 0x06, 0xf9, 0x81, 0x10, 0x06, 0x06, 0xfd, 0xb6, 0xe0, 0x07, 0xb0,
  0x13, 0xee, 0x10, 0xe5, 0xba, 0x07, 0xe6, 0xfd, 0x19, 0xf3, 0x0e, 0xed,
  0xc6, 0x1e, 0xda, 0xba, 0x17, 0x10, 0x1a, 0x25, 0x1b, 0x37, 0x17, 0xca,
  0xe6, 0xea, 0x11, 0x0b, 0x0d, 0x23, 0xf7, 0xb6, 0xee, 0x11, 0x01, 0xe5,
  0x24, 0x1c, 0x22, 0xb5, 0xe3, 0xee, 0x00, 0xfd, 0xe9, 0xda, 0x08, 0xdf,
  0xe4, 0x0b, 0x14, 0x07, 0xc4, 0xda, 0x23, 0xaf, 0xfe, 0x0b, 0x19, 0xf3,
  0x46, 0x0f, 0x0f, 0x81, 0xe3, 0xe7, 0xeb, 0x20, 0x2c, 0x19, 0xf0, 0x91,
  0xf0, 0xe0, 0xea, 0x13, 0x55, 0xde, 0x18, 0xeb, 0x0b, 0xe8, 0xfc, 0xf0,
  0x4e, 0x19, 0x33, 0xe1, 0x2b, 0x09, 0x12, 0xde, 0x3b, 0x04, 0x51, 0x35,
  0x98, 0xa8, 0x97, 0xb5, 0xd3, 0xc0, 0xf5, 0x07, 0x0a, 0xe7, 0x12, 0x13,
  0xb9, 0xfb, 0x44, 0x08, 0x20, 0xff, 0x27, 0xfb, 0x81, 0xe0, 0x57, 0x31,
  0xfb, 0xe3, 0xcd, 0xfd, 0x4c, 0xdd, 0x95, 0xd5, 0xeb, 0xcc, 0xc0, 0xba,
  0x4b, 0xeb, 0xcd, 0x07, 0xec, 0xf2, 0xcb, 0xdc, 0x16, 0xd8, 0xc1, 0x23,
  0x1f, 0x34, 0xfc, 0xfe, 0x25, 0x31, 0xf7, 0xb7, 0x25, 0xf6, 0xfe, 0x14,
  0x33, 0x23, 0x04, 0xd3, 0x32, 0x10, 0x32, 0x08, 0x51, 0x12, 0x19, 0xcb,
  0x0b, 0xff, 0x0a, 0x37, 0xfc, 0x1d, 0xff, 0xbb, 0xf9, 0x18, 0xf0, 0xeb,
  0x02, 0xde, 0x22, 0xdc, 0x01, 0xf5, 0xd2, 0x06, 0xf7, 0x06, 0x15, 0x16,
  0x13, 0x19, 0x16, 0x04, 0x00, 0x20, 0x03, 0x81, 0xf4, 0xef, 0x06, 0xd7,
  0xeb, 0xea, 0xd2, 0xe3, 0xd2, 0xd0, 0xf6, 0x1f, 0xfd, 0xdc, 0xf8, 0xfc,
  0x06, 0x17, 0x2d, 0x24, 0xfc, 0x15, 0x0d, 0x8b, 0x05, 0x09, 0xec, 0xf4,
  0x4c, 0x18, 0xf8, 0xb1, 0x02, 0xf5, 0x05, 0x0a, 0x2c, 0xf7, 0xf9, 0xf5,
  0xfa, 0x04, 0xf7, 0x0c, 0xdf, 0x19, 0x27, 0xd7, 0x2a, 0x06, 0x2c, 0xf3,
  0x21, 0xf0, 0x1c, 0xcb, 0x2d, 0x32, 0xfd, 0x05, 0x4d, 0x21, 0x14, 0xfd,
  0xe3, 0xd6, 0xcc, 0xf5, 0x81, 0xc1, 0xed, 0xf4, 0xf4, 0xfe, 0xec, 0x0a,
  0xd4, 0x12, 0x3f, 0xd8, 0x31, 0x0c, 0x08, 0xe1, 0x01, 0x28, 0x46, 0xef,
  0xad, 0xf0, 0xc9, 0x02, 0x10, 0xe0, 0xd1, 0x11, 0xd6, 0xee, 0xd2, 0xf1,
  0x49, 0xdc, 0xd0, 0x54, 0xde, 0xc8, 0xf8, 0xff, 0xf7, 0xd8, 0xf4, 0x53,
  0xfb, 0x33, 0x03, 0xe5, 0x64, 0xd9, 0x04, 0x0d, 0xee, 0xf2, 0xd0, 0xf8,
  0x3a, 0xf7, 0xa6, 0x03, 0xe5, 0xc2, 0xb1, 0xd2, 0x2a, 0xd6, 0xbc, 0x40,
  0x01, 0x13, 0xfd, 0x38, 0xec, 0x1e, 0x19, 0x14, 0x0e, 0x13, 0x1c, 0x12,
  0x27, 0xfb, 0x1d, 0xda, 0xfa, 0xf3, 0xe0, 0x8f, 0x04, 0xce, 0x8d, 0x02,
  0x29, 0xf9, 0x2a, 0x5a, 0xc5, 0xfc, 0xf6, 0xea, 0x16, 0x42, 0x24, 0x3d,
  0xe5, 0x40, 0xeb, 0xe7, 0xd0, 0xe4, 0xdd, 0xac, 0xdc, 0xba, 0x81, 0x23,
  0x06, 0xf1, 0x18, 0x0e, 0x21, 0x23, 0xb2, 0x3f, 0x36, 0xf3, 0xea, 0x3a,
  0x46, 0x3b, 0xe1, 0x08, 0x51, 0x2b, 0x05, 0xf7, 0x32, 0x2b, 0xfa, 0xe1,
  0x5c, 0x3e, 0x2e, 0x1d, 0x34, 0x24, 0x23, 0xc1, 0x42, 0xfe, 0x29, 0xce,
  0xeb, 0x32, 0x1e, 0xdf, 0x34, 0xff, 0xe5, 0xa6, 0x03, 0x30, 0x77, 0x33,
  0xbc, 0x0c, 0xc0, 0x96, 0x81, 0xb4, 0x59, 0x2a, 0xd5, 0xab, 0xab, 0xba,
  0xce, 0x08, 0xf4, 0x0a, 0x08, 0xe9, 0xae, 0x9a, 0xd0, 0xf2, 0x12, 0x57,
  0x1e, 0xf0, 0xf4, 0xf1, 0xee, 0xf1, 0x55, 0xeb, 0x1f, 0x54, 0x15, 0x13,
  0x24, 0x1e, 0x5a, 0xc2, 0x45, 0x08, 0x40, 0x01, 0xc3, 0x3e, 0x4b, 0x3f,
  0xb5, 0xa5, 0xa2, 0x93, 0x7f, 0xa6, 0xd0, 0xe8, 0xdb, 0xa4, 0xcf, 0xbe,
  0x40, 0xb3, 0x33, 0x7f, 0xe2, 0xcf, 0xc5, 0xa2, 0xfd, 0xac, 0x2c, 0x61,
  0x33, 0x4f, 0x01, 0x24, 0x7a, 0x3f, 0xfd, 0x01, 0xfd, 0x03, 0xf3, 0xff,
  0x2f, 0x3a, 0xb4, 0x03, 0xef, 0xec, 0x2b, 0xd7, 0x3b, 0x0e, 0xcc, 0xb4,
  0xe9, 0x03, 0x8a, 0xbd, 0xed, 0xba, 0x82, 0x0f, 0xdc, 0xff, 0x0f, 0x2e,
  0xfe, 0x53, 0xcb, 0x3d, 0x17, 0x2c, 0x22, 0x0f, 0x2a, 0x37, 0x29, 0xbd,
  0xcc, 0x1a, 0xd4, 0x5a, 0xf1, 0x36, 0xa2, 0xc6, 0x43, 0xdf, 0x0d, 0x2b,
  0xc9, 0x5a, 0x17, 0xc6, 0x41, 0xe5, 0xfc, 0xcd, 0xb9, 0x25, 0x13, 0xea,
  0x3f, 0x02, 0x1f, 0x61, 0x19, 0x27, 0xdd, 0x81, 0x48, 0x3c, 0xe8, 0xf8,
  0x89, 0xe7, 0xe8, 0xe7, 0x0d, 0x1a, 0xcd, 0x95, 0xd9, 0x94, 0xc9, 0xd3,
  0x00, 0xf7, 0xc5, 0xcf, 0xfc, 0xeb, 0x1e, 0xf6, 0xcd, 0xb8, 0xd5, 0x30,
  0xe6, 0x0f, 0xdd, 0x44, 0xeb, 0xe4, 0x15, 0x00, 0x52, 0x04, 0xa2, 0xdc,
  0x16, 0x2d, 0x03, 0x0c, 0x4b, 0x2a, 0xcb, 0xd5, 0x4e, 0x04, 0x48, 0x1c,
  0x7f, 0x0d, 0x4d, 0xac, 0x4a, 0xf2, 0xfd, 0xdd, 0x34, 0x0f, 0x59, 0xcf,
  0xef, 0xea, 0x27, 0xfe, 0x08, 0x10, 0x55, 0x11, 0xd9, 0xe5, 0xd3, 0xd7,
  0xdc, 0x01, 0x24, 0x5a, 0xc1, 0xde, 0x06, 0x21, 0xe0, 0xf9, 0x0c, 0xe5,
  0xd2, 0xea, 0xc2, 0xf9, 0xe5, 0xd0, 0x3f, 0x0b, 0xe3, 0xdb, 0xd7, 0xd9,
  0x09, 0xce, 0x29, 0x10, 0xaa, 0xb5, 0xbd, 0xda, 0xfa, 0xe3, 0xef, 0x4b,
  0xca, 0xc0, 0xf4, 0x32, 0xcc, 0xdb, 0x81, 0x25, 0x0e, 0xf6, 0x06, 0x1e,
  0x07, 0x11, 0xcb, 0x15, 0x07, 0x25, 0x28, 0xe7, 0x48, 0x01, 0xc7, 0xf2,
  0xf2, 0x01, 0x1a, 0xee, 0xf8, 0x0a, 0x1f, 0xc4, 0xea, 0x1b, 0x09, 0x12,
  0x11, 0x18, 0x27, 0xe2, 0x29, 0x1c, 0x36, 0x23, 0x03, 0x03, 0x04, 0xed,
  0x01, 0xe2, 0xdc, 0xe4, 0x21, 0x10, 0xbe, 0xaf, 0xfe, 0xef, 0x07, 0x28,
  0xde, 0x04, 0x09, 0xcc, 0xe8, 0xe3, 0xef, 0xdc, 0xe9, 0xc0, 0xd2, 0xbb,
  0x28, 0x28, 0x02, 0x0a, 0x42, 0x30, 0xe3, 0x9b, 0xee, 0xec, 0x17, 0xff,
  0x2d, 0x20, 0xf3, 0x95, 0x06, 0xdf, 0xd9, 0xe5, 0x1a, 0xfc, 0xd9, 0xc7,
  0x30, 0x1a, 0xf8, 0xd7, 0x0a, 0x16, 0x08, 0xf6, 0x09, 0x26, 0x1b, 0xec,
  0x5d, 0xde, 0x2c, 0xe6, 0x3b, 0xfa, 0x31, 0xff, 0x7f, 0x27, 0x2f, 0xf2,
  0xc5, 0xc8, 0xde, 0x13, 0xa5, 0x09, 0x08, 0xed, 0x00, 0x2d, 0x1e, 0x00,
  0xfc, 0x13, 0x01, 0xb9, 0xe9, 0xf0, 0xf8, 0x0c, 0x38, 0xf2, 0xf1, 0x1d,
  0xfb, 0xdc, 0xe9, 0x1a, 0xaa, 0x21, 0x04, 0xba, 0x22, 0x20, 0x0c, 0xf2,
  0xf6, 0x24, 0xfa, 0x81, 0x03, 0xf1, 0xfb, 0xf0, 0xfd, 0x00, 0xca, 0xc6,
  0xfa, 0x13, 0x0f, 0x0e, 0xdc, 0x1f, 0xee, 0xd3, 0xfa, 0x1b, 0x1b, 0x01,
  0xf8, 0x1a, 0xdd, 0x91, 0xed, 0x0b, 0x00, 0x44, 0x0d, 0x13, 0xef, 0xc8,
  0x11, 0x0f, 0x21, 0x02, 0x17, 0x0c, 0x35, 0x06, 0x05, 0x0c, 0xfb, 0x08,
  0x3c, 0x1b, 0x29, 0x9b, 0x07, 0x04, 0xdf, 0xd0, 0x40, 0xde, 0xe4, 0x8b,
  0xdb, 0xc9, 0xe2, 0xe8, 0x0a, 0x02, 0x13, 0xd9, 0xfc, 0x0b, 0x0c, 0x4a,
  0x27, 0x1f, 0x23, 0x81, 0x02, 0xf8, 0x04, 0xf2, 0x24, 0xe7, 0x03, 0xa4,
  0xd2, 0xd5, 0xd9, 0x04, 0x28, 0xe9, 0x04, 0xde, 0x19, 0x03, 0x24, 0x39,
  0xe0, 0x0c, 0x29, 0xc2, 0xee, 0x0f, 0xe8, 0x06, 0x14, 0x0c, 0xe4, 0xd9,
  0x0f, 0xe8, 0x33, 0x14, 0xce, 0x65, 0xf6, 0x14, 0x34, 0x1e, 0x6b, 0x1d,
  0xd5, 0x5d, 0x0d, 0xee, 0x2b, 0x01, 0xd6, 0xc9, 0xe4, 0x0a, 0x2d, 0x08,
  0x5a, 0x30, 0x5f, 0x14, 0xee, 0x28, 0x0b, 0xce, 0x2c, 0x4e, 0xd4, 0x06,
  0x81, 0xe8, 0xdf, 0x03, 0x97, 0xb5, 0xcb, 0xdb, 0xa1, 0x9c, 0xc3, 0xe1,
  0x31, 0x26, 0x04, 0x18, 0xa4, 0x28, 0xf6, 0xc7, 0xef, 0xc9, 0xa2, 0xc2,
  0xb0, 0xb3, 0x99, 0x0b, 0xb7, 0xcb, 0xd4, 0x00, 0xd1, 0xf8, 0x13, 0xd2,
  0xfe, 0xc9, 0xff, 0xff, 0x04, 0x00, 0x00, 0x00, 0x40, 0x00, 0x00, 0x00,
  0x92, 0xf9, 0xff, 0xff, 0xdd, 0x00, 0x00, 0x00, 0x5a, 0xf7, 0xff, 0xff,
  0x95, 0xf9, 0xff, 0xff, 0x29, 0xfb, 0xff, 0xff, 0xa7, 0xfb, 0xff, 0xff,
  0x52, 0x08, 0x00, 0x00, 0x64, 0xee, 0xff, 0xff, 0x18, 0xf7, 0xff, 0xff,
  0x69, 0xf7, 0xff, 0xff, 0x50, 0xf8, 0xff, 0xff, 0x4a, 0xf8, 0xff, 0xff,
  0xbc, 0xf5, 0xff, 0xff, 0xb4, 0xfd, 0xff, 0xff, 0x69, 0xf9, 0xff, 0xff,
  0x93, 0x00, 0x00, 0x00, 0x4a, 0xca, 0xff, 0xff, 0x04, 0x00, 0x00, 0x00,
  0x00, 0x32, 0x00, 0x00, 0x2a, 0xeb, 0x1c, 0xe4, 0xb7, 0xda, 0xfd, 0xcb,
  0xdd, 0x14, 0x07, 0xf5, 0xe3, 0xe5, 0x2c, 0xe7, 0xfa, 0xfb, 0xf6, 0x1a,
  0xcb, 0xcb, 0x07, 0xff, 0xf1, 0x24, 0x38, 0x14, 0x07, 0xfe, 0x06, 0x21,
  0xed, 0xee, 0x28, 0x20, 0xf5, 0xf7, 0x14, 0x1e, 0xfb, 0x22, 0xfb, 0x06,
  0x02, 0xe6, 0x1b, 0x24, 0xf7, 0xe2, 0x29, 0x03, 0x05, 0xfb, 0x08, 0x04,
  0x28, 0x06, 0x10, 0x1c, 0x29, 0x12, 0xee, 0x1f, 0xfd, 0x1a, 0x01, 0x2b,
  0x09, 0x19, 0xe6, 0xeb, 0x12, 0x30, 0xe7, 0x18, 0x21, 0x34, 0xfe, 0xf8,
  0x22, 0x23, 0xef, 0xea, 0xc8, 0xdc, 0x0e, 0x01, 0xf0, 0x03, 0xfa, 0x09,
  0xe1, 0x22, 0x2a, 0xd5, 0x20, 0x02, 0x0e, 0x05, 0x1b, 0xc3, 0xf5, 0x19,
  0xd3, 0x1e, 0x21, 0xf4, 0xd8, 0xd1, 0x04, 0x1c, 0xbe, 0xd6, 0x30, 0xe0,
  0x20, 0xc8, 0xdb, 0xdf, 0xbd, 0xf0, 0x1d, 0x0a, 0xfd, 0x2f, 0x3c, 0x01,
  0xd2, 0x16, 0xff, 0xca, 0x0a, 0xd2, 0xdf, 0xd0, 0x10, 0x14, 0x09, 0xf6,
  0x1d, 0xec, 0xfd, 0xfa, 0xba, 0x10, 0x1f, 0x1a, 0x0c, 0x16, 0x06, 0x07,
  0x51, 0x0c, 0x18, 0xdf, 0xf0, 0xf1, 0xd7, 0x03, 0x29, 0x29, 0x15, 0xa8,
  0x52, 0x08, 0x23, 0xdb, 0xc3, 0x11, 0xf2, 0xf6, 0x02, 0x0a, 0x1a, 0xed,
  0x29, 0x15, 0x1c, 0xc1, 0x44, 0xd2, 0xe5, 0xe3, 0xd9, 0x20, 0xdb, 0xb1,
  0x1d, 0x3e, 0xf3, 0xda, 0x40, 0xfc, 0x34, 0xda, 0x1d, 0x3b, 0xbc, 0x0c,
  0x15, 0x05, 0x15, 0xec, 0x17, 0x56, 0x17, 0xd1, 0xfa, 0x02, 0xfe, 0xec,
  0xf2, 0x42, 0x46, 0x5e, 0x18, 0x1e, 0x18, 0x13, 0xda, 0xec, 0x1a, 0x08,
  0x0a, 0xed, 0xe7, 0xb2, 0xf3, 0x2e, 0x2a, 0x49, 0xe4, 0xfa, 0x27, 0xdc,
  0x0f, 0x07, 0xf4, 0xf9, 0x31, 0x2e, 0x36, 0x0c, 0xf5, 0x2c, 0xff, 0x16,
  0xf6, 0x01, 0xdb, 0xe2, 0x2b, 0xd3, 0x36, 0xb8, 0x27, 0x25, 0x37, 0xf3,
  0x33, 0x1e, 0x14, 0x20, 0x0d, 0xf7, 0xf0, 0xa8, 0x24, 0x1a, 0x0b, 0xc1,
  0x17, 0x10, 0x2a, 0x4b, 0x0a, 0x4d, 0xeb, 0x18, 0x7f, 0xd0, 0x49, 0x0f,
  0x0f, 0xff, 0xfe, 0xe1, 0x05, 0x08, 0xdf, 0x25, 0x09, 0x12, 0x1d, 0x01,
  0xfd, 0xe4, 0xeb, 0x2f, 0xec, 0x2e, 0x41, 0x05, 0x4b, 0x1a, 0xd3, 0xcb,
  0xe5, 0xdd, 0xfc, 0x07, 0x94, 0x20, 0xbd, 0xd5, 0xbe, 0x08, 0x27, 0x18,
  0x00, 0xe4, 0x1d, 0x3e, 0xce, 0x08, 0xf3, 0x28, 0x11, 0x07, 0xe9, 0xf4,
  0xf4, 0x07, 0xf8, 0xf6, 0xf6, 0xd6, 0x0f, 0x7a, 0xd4, 0x0b, 0xe9, 0x18,
  0x36, 0xe2, 0x28, 0x3d, 0x2f, 0xec, 0xd3, 0xda, 0x30, 0xf5, 0xa9, 0x2c,
  0x01, 0x0d, 0x0b, 0xdc, 0x11, 0x30, 0x1f, 0x47, 0x00, 0x05, 0x3e, 0x24,
  0x07, 0xf3, 0xf1, 0x2b, 0x0a, 0xeb, 0x09, 0x14, 0xe0, 0xe7, 0xf2, 0xf5,
  0xc1, 0x1d, 0x07, 0x2f, 0x18, 0xd6, 0x02, 0xdf, 0xf1, 0xf2, 0xfb, 0xde,
  0xad, 0x0e, 0x13, 0x11, 0xd0, 0x09, 0x3d, 0x10, 0x10, 0xfb, 0xc3, 0xf2,
  0x1c, 0x12, 0x0d, 0x17, 0xe2, 0x0f, 0xc4, 0xef, 0xfe, 0x22, 0xf9, 0x2e,
  0xf0, 0xee, 0x1a, 0xf8, 0xcc, 0x39, 0xe4, 0x0c, 0xe4, 0xce, 0xec, 0x21,
  0xef, 0xce, 0xcc, 0x1d, 0x1b, 0x1b, 0xdc, 0x0a, 0xf1, 0x36, 0x1a, 0xd5,
  0xdd, 0xe0, 0x03, 0x1c, 0x07, 0x12, 0xf8, 0xbc, 0xe2, 0xf6, 0xaa, 0xdb,
  0xe5, 0x1b, 0x04, 0xfe, 0x08, 0xdb, 0xb2, 0xaa, 0x0d, 0xe0, 0xc1, 0x29,
  0x08, 0xd6, 0xb7, 0x07, 0xba, 0x08, 0x15, 0xed, 0x02, 0xea, 0xa0, 0x09,
  0xe6, 0xe6, 0x11, 0xd4, 0xe6, 0xed, 0xbd, 0xc0, 0xfc, 0xf1, 0xdd, 0xdb,
  0xdf, 0xd4, 0xc9, 0xb4, 0x26, 0xe5, 0xd3, 0xc8, 0x2e, 0x30, 0xb4, 0x02,
  0x0d, 0x0f, 0xcb, 0xc7, 0xe8, 0xad, 0xb5, 0xcb, 0x95, 0xa4, 0xbc, 0xd6,
  0x15, 0xe3, 0x2f, 0xc2, 0x3c, 0xe2, 0x40, 0xe4, 0xd9, 0x09, 0xaa, 0xdf,
  0x01, 0x02, 0x07, 0x1d, 0x0c, 0xd5, 0xea, 0x04, 0x2e, 0x03, 0xbf, 0x1a,
  0xcb, 0xb0, 0xf6, 0x1f, 0xfe, 0xda, 0x26, 0xea, 0xd7, 0xc4, 0x02, 0x3a,
  0xf2, 0xc5, 0x2e, 0xfe, 0x04, 0xd5, 0x04, 0x56, 0xe3, 0xf2, 0x0f, 0x0d,
  0xfa, 0x1c, 0xf3, 0xd7, 0xf5, 0xc2, 0xd6, 0x01, 0x08, 0xbc, 0xf2, 0xbb,
  0xff, 0xed, 0x03, 0xd9, 0x14, 0x27, 0xa1, 0x34, 0x01, 0xcf, 0xfd, 0xe8,
  0x03, 0x07, 0xb7, 0x2f, 0xb7, 0x81, 0x0d, 0xdf, 0x06, 0x23, 0xd1, 0xe5,
  0x2d, 0xf2, 0x1d, 0xee, 0x96, 0x0e, 0xcc, 0xcb, 0xc0, 0x27, 0xe2, 0x17,
  0x20, 0xf6, 0x12, 0xea, 0x2a, 0x36, 0xb7, 0x24, 0xad, 0xde, 0xb6, 0xf9,
  0xde, 0xb3, 0x25, 0xd5, 0x22, 0x20, 0xe8, 0x16, 0xe0, 0xf6, 0x31, 0xbe,
  0x9b, 0x40, 0x11, 0xc8, 0xdd, 0x1f, 0x2f, 0x27, 0xd5, 0x1c, 0xe3, 0x06,
  0xe5, 0xb7, 0x13, 0xb4, 0xf4, 0xd5, 0x06, 0xf1, 0xc3, 0xbe, 0xd3, 0xd2,
  0x12, 0x0d, 0xbf, 0x22, 0xd8, 0xf4, 0xef, 0xe5, 0xb8, 0x22, 0xdb, 0xff,
  0xf8, 0x16, 0xf7, 0xd4, 0xfe, 0xdf, 0x04, 0x05, 0x16, 0x8d, 0x32, 0xe5,
  0xb1, 0x09, 0xd5, 0xa7, 0xec, 0x45, 0xfa, 0x28, 0xeb, 0xc4, 0x9f, 0xca,
  0xf2, 0x01, 0xc6, 0xeb, 0x0e, 0x1a, 0x1f, 0x04, 0xe3, 0xdb, 0x2e, 0xd2,
  0xdc, 0xcf, 0x27, 0xef, 0x0b, 0x39, 0xd7, 0x27, 0xee, 0x23, 0x1f, 0xcd,
  0xfa, 0x10, 0x15, 0x12, 0x0b, 0xcf, 0xf8, 0xbf, 0x07, 0xd9, 0x00, 0xeb,
  0xc0, 0xb7, 0xc4, 0x17, 0xe8, 0x1c, 0x13, 0xc7, 0xe4, 0xdd, 0xdd, 0xe5,
  0x03, 0xd6, 0xce, 0xf4, 0xa7, 0x2c, 0xd8, 0x1a, 0xdd, 0x29, 0x02, 0xb1,
  0xcc, 0x2a, 0x13, 0xf0, 0x27, 0x9e, 0xf5, 0xf5, 0xdc, 0xf7, 0xb9, 0xac,
  0xf2, 0xf5, 0xad, 0x3a, 0xf0, 0xe7, 0xbc, 0xd1, 0xe3, 0x44, 0xa2, 0xbe,
  0x39, 0xde, 0xab, 0x12, 0xaf, 0xe4, 0x9f, 0xbd, 0x19, 0xb6, 0xee, 0x28,
  0xd4, 0x18, 0x09, 0x07, 0x2f, 0xee, 0xc3, 0xfb, 0x09, 0xfa, 0xce, 0x23,
  0x24, 0x2a, 0xed, 0x09, 0xe7, 0xbf, 0xc4, 0xdb, 0x0f, 0x0b, 0x13, 0x06,
  0x1a, 0xf1, 0xfe, 0x04, 0x10, 0xea, 0x1e, 0x03, 0xe5, 0xf4, 0xfc, 0xf6,
  0x31, 0x15, 0x39, 0x07, 0x12, 0x08, 0xdf, 0x21, 0xea, 0xfb, 0xfb, 0xfe,
  0xfd, 0x1a, 0xde, 0x2a, 0x1d, 0xdf, 0x1d, 0x24, 0x14, 0x0c, 0xea, 0xf1,
  0xc4, 0xf5, 0x0c, 0x15, 0xff, 0xf0, 0x06, 0x12, 0xf4, 0xd0, 0xf4, 0x0a,
  0x02, 0xcf, 0x0e, 0xde, 0x21, 0x10, 0xe6, 0x1b, 0x11, 0xfa, 0xfc, 0x0c,
  0x2c, 0x04, 0xeb, 0x04, 0x09, 0xd0, 0xe1, 0x11, 0x28, 0xfc, 0x18, 0xe3,
  0xde, 0x1b, 0xda, 0xfe, 0xc2, 0x37, 0xf6, 0xfc, 0xf8, 0x15, 0x2f, 0xc5,
  0x0d, 0xe7, 0xfe, 0xf6, 0x52, 0x17, 0xe1, 0x0b, 0xfa, 0x02, 0x1d, 0xf2,
  0x00, 0x06, 0x03, 0x04, 0xf3, 0xf0, 0x23, 0xf1, 0xf9, 0xfe, 0xb1, 0xe5,
  0xf6, 0xf9, 0x03, 0xd1, 0x15, 0xf0, 0x0c, 0xba, 0xe6, 0x02, 0x30, 0xef,
  0x02, 0xcb, 0xef, 0xe1, 0x0b, 0x03, 0x01, 0xe4, 0x02, 0xe2, 0x06, 0xf1,
  0xff, 0xed, 0x0d, 0x24, 0x21, 0xf0, 0xf3, 0x07, 0x29, 0xf0, 0x2f, 0x26,
  0x26, 0x0b, 0xd0, 0x14, 0x11, 0x0e, 0x0b, 0x11, 0x23, 0x28, 0xe8, 0x3b,
  0x1a, 0x0e, 0x12, 0xd3, 0x09, 0x15, 0x11, 0xd9, 0x23, 0x0a, 0x25, 0x20,
  0x2c, 0x36, 0xe4, 0xdd, 0xd4, 0xdb, 0xfc, 0x10, 0x16, 0xe8, 0x08, 0x81,
  0x02, 0xf8, 0x5b, 0x1c, 0xd6, 0x07, 0xd1, 0x07, 0x28, 0x05, 0x1a, 0xe6,
  0x31, 0x40, 0x53, 0xdc, 0xee, 0xee, 0x06, 0xb4, 0xda, 0x14, 0xeb, 0x35,
  0x2b, 0x2d, 0x46, 0xe8, 0xfb, 0xf9, 0x21, 0x32, 0x09, 0xe4, 0xd7, 0xd6,
  0xdb, 0x3c, 0x00, 0x42, 0x15, 0xe0, 0xfa, 0xea, 0xdf, 0xd3, 0xe4, 0x0e,
  0xf8, 0xfb, 0xf9, 0x60, 0xc3, 0x06, 0x0f, 0xee, 0x4f, 0x13, 0xef, 0x3e,
  0xfe, 0xe0, 0x10, 0xe0, 0xf7, 0x06, 0xca, 0x32, 0xe4, 0x21, 0xd4, 0xf8,
  0x31, 0xf6, 0xd6, 0xf8, 0xe1, 0xca, 0x09, 0xef, 0x20, 0x18, 0x03, 0xd1,
  0xe5, 0x4e, 0xfc, 0x32, 0x1f, 0x09, 0xf3, 0xed, 0xeb, 0x0d, 0x0c, 0x0d,
  0x12, 0xd8, 0x11, 0x11, 0x00, 0x32, 0x39, 0x07, 0x2e, 0xeb, 0xec, 0xd4,
  0xdd, 0xdd, 0x02, 0xda, 0x2e, 0xf6, 0x06, 0x03, 0xf0, 0x0d, 0x21, 0xc1,
  0x13, 0xbe, 0xb6, 0xdd, 0x05, 0xf0, 0x30, 0xd7, 0xf2, 0x05, 0x26, 0x0e,
  0xba, 0xf1, 0xec, 0xd7, 0xbd, 0xe8, 0xff, 0x0c, 0xf0, 0x3a, 0x2a, 0xc1,
  0xe7, 0xe4, 0x36, 0x11, 0x16, 0xe4, 0xbb, 0x04, 0x06, 0xe1, 0x1e, 0x09,
  0x40, 0xfa, 0x07, 0xcf, 0xc3, 0xd8, 0xfe, 0x06, 0xfc, 0xe6, 0xfd, 0xf2,
  0x08, 0xe5, 0x0c, 0x18, 0xff, 0xff, 0xf9, 0xfa, 0xd6, 0xe8, 0xe5, 0xf9,
  0xe3, 0xec, 0x25, 0xf0, 0xfe, 0x10, 0xf6, 0x0f, 0xd2, 0x09, 0xfc, 0xfc,
  0xff, 0xfd, 0xb8, 0xed, 0xe3, 0xca, 0x08, 0xeb, 0x9c, 0x17, 0xe8, 0xcf,
  0xde, 0x0e, 0x09, 0x06, 0xfc, 0xee, 0x17, 0xe7, 0x02, 0x03, 0x0f, 0x0f,
  0x00, 0x09, 0x07, 0x20, 0x01, 0x18, 0xfa, 0xde, 0xe7, 0x11, 0x00, 0x19,
  0x20, 0x3f, 0x10, 0xed, 0x00, 0xde, 0x21, 0xfb, 0x05, 0x12, 0xf7, 0xea,
  0x22, 0xfc, 0x1a, 0xed, 0x19, 0x3c, 0x31, 0xfa, 0xe9, 0xe4, 0x07, 0xf5,
  0xf4, 0xf4, 0x3a, 0xfb, 0x2b, 0xf2, 0xf9, 0xd9, 0x14, 0x0a, 0x28, 0xd0,
  0xd6, 0xd2, 0x0e, 0xf6, 0x00, 0xfd, 0x27, 0x10, 0x34, 0xf8, 0x0d, 0xfb,
  0x15, 0x9f, 0xec, 0xab, 0xd5, 0x15, 0x14, 0x08, 0x16, 0xe7, 0x61, 0x04,
  0xe1, 0x09, 0xea, 0x3a, 0xf6, 0x27, 0x07, 0x19, 0x1d, 0xee, 0x20, 0x1d,
  0x20, 0x02, 0xef, 0x1c, 0x1d, 0x12, 0x09, 0x2d, 0xc4, 0x0e, 0x3a, 0x12,
  0xf6, 0x05, 0x27, 0x20, 0xf2, 0x04, 0x07, 0xd8, 0xfb, 0x04, 0x03, 0x1e,
  0xeb, 0xf2, 0x59, 0xd7, 0xf0, 0xe5, 0x22, 0xe0, 0x20, 0x0f, 0x12, 0xf0,
  0x23, 0x1b, 0xfe, 0xda, 0x37, 0xd4, 0x22, 0xfd, 0xb3, 0x09, 0xd7, 0xd8,
  0xfd, 0x21, 0x15, 0x05, 0xf2, 0x05, 0x01, 0xdf, 0x17, 0x81, 0xf6, 0xff,
  0xbd, 0x4d, 0xed, 0xdb, 0xf3, 0x22, 0xf7, 0x27, 0x0e, 0x09, 0xd7, 0x08,
  0xcc, 0x09, 0xfb, 0x06, 0x24, 0x0f, 0x19, 0x27, 0xe8, 0xef, 0xea, 0xdf,
  0x03, 0xec, 0xd9, 0x0d, 0x09, 0xf8, 0x0d, 0x07, 0xf6, 0x30, 0x1c, 0x09,
  0xe2, 0xf1, 0xe2, 0x01, 0xf1, 0x1c, 0xd8, 0xeb, 0x00, 0x13, 0xf5, 0x2b,
  0x14, 0x1e, 0xfa, 0x23, 0x10, 0xf7, 0xd2, 0x18, 0x1a, 0x04, 0xf5, 0x00,
  0xfe, 0x15, 0x03, 0x0b, 0xd7, 0x18, 0xfb, 0xf6, 0x31, 0xee, 0xfd, 0xdd,
  0xfe, 0xfb, 0xf0, 0xf2, 0x39, 0xdb, 0xfd, 0x2b, 0xe0, 0x28, 0xf1, 0xf9,
  0x1b, 0x0f, 0xf1, 0x07, 0x0c, 0xfb, 0x18, 0x1b, 0xef, 0x24, 0x0b, 0x0d,
  0x0d, 0xd8, 0xfd, 0xfc, 0xed, 0xf5, 0xe4, 0x03, 0x12, 0x15, 0x03, 0x2c,
  0xef, 0x36, 0x1f, 0xfb, 0x10, 0xd9, 0x07, 0xf9, 0x1a, 0x0a, 0xf2, 0xf9,
  0x20, 0x06, 0x21, 0x09, 0xf5, 0x40, 0x2a, 0xff, 0x47, 0xdc, 0xf5, 0x1a,
  0x1a, 0xe8, 0xf8, 0xdb, 0x2a, 0xf2, 0x24, 0xfa, 0xf1, 0xfc, 0xee, 0x1e,
  0x17, 0xff, 0x13, 0x19, 0x13, 0xdf, 0x19, 0x13, 0x26, 0x1a, 0x25, 0xaa,
  0x08, 0xe2, 0x0c, 0xf9, 0xf9, 0x0f, 0xff, 0xae, 0x0b, 0x03, 0x0a, 0x18,
  0xe5, 0xf7, 0xfa, 0x06, 0xee, 0x06, 0xdc, 0x04, 0x16, 0xdc, 0xe9, 0x05,
  0xfd, 0xf2, 0x15, 0xfe, 0xec, 0xde, 0x10, 0x41, 0x03, 0xfa, 0x22, 0xfb,
  0x3c, 0x10, 0xd7, 0x2d, 0xfd, 0x03, 0x07, 0x07, 0x01, 0xee, 0xee, 0x0c,
  0xd3, 0xe8, 0xfa, 0xf4, 0x14, 0xf3, 0x00, 0xec, 0xcb, 0xf9, 0x20, 0xf1,
  0x0a, 0x0f, 0xfa, 0x06, 0xf7, 0xfb, 0xfa, 0x00, 0xca, 0xff, 0x0a, 0xf7,
  0xf8, 0xf7, 0x13, 0xf3, 0x11, 0x28, 0xdc, 0xe6, 0x10, 0xff, 0xfb, 0x1a,
  0xfe, 0x00, 0xdf, 0xe7, 0xd9, 0xf8, 0x1f, 0xff, 0x0e, 0x2d, 0xf2, 0xdf,
  0x1c, 0xfe, 0x02, 0xc4, 0x0d, 0x1c, 0x48, 0xe4, 0xf0, 0xf4, 0x20, 0x0a,
  0xfb, 0x23, 0x03, 0xfb, 0xf8, 0x10, 0x0b, 0xe4, 0x1e, 0x2c, 0x2c, 0x0e,
  0xef, 0x28, 0x4e, 0x4a, 0x7d, 0x28, 0x04, 0xe4, 0x31, 0xed, 0x10, 0xae,
  0xe0, 0x01, 0x22, 0x1e, 0xe3, 0x1e, 0x35, 0x46, 0x12, 0x17, 0xf1, 0xee,
  0x2c, 0x96, 0xfc, 0x31, 0xe5, 0x3f, 0x12, 0x0c, 0xe0, 0xe9, 0xf6, 0x1c,
  0xb8, 0xe6, 0xcb, 0xe9, 0xe6, 0xfc, 0xea, 0x19, 0xfc, 0x1e, 0xf4, 0xc0,
  0xfc, 0x2a, 0x08, 0x0c, 0xf3, 0xe1, 0xf7, 0x04, 0x01, 0xd5, 0xf5, 0x2f,
  0xff, 0xde, 0x0d, 0xf0, 0xb9, 0xe0, 0x11, 0x7d, 0x03, 0x15, 0xd9, 0xf2,
  0xef, 0xf0, 0xd6, 0xec, 0xeb, 0xd6, 0x05, 0xee, 0xe2, 0xe6, 0x14, 0x2c,
  0xe3, 0x15, 0x15, 0xff, 0x1f, 0x18, 0x1e, 0xfc, 0xfe, 0x34, 0x17, 0x2d,
  0xd1, 0x0a, 0xbd, 0x63, 0xe2, 0x0b, 0x22, 0xde, 0x0a, 0xe2, 0xe9, 0x0f,
  0x48, 0xf7, 0xed, 0x39, 0x1a, 0x10, 0xd3, 0x36, 0x81, 0x14, 0xff, 0xfe,
  0xf7, 0x10, 0xdd, 0x20, 0x74, 0xfe, 0xc4, 0x22, 0x1d, 0xdc, 0x0d, 0xfc,
  0x1c, 0xf6, 0xbf, 0x1a, 0x34, 0x1b, 0x34, 0xf2, 0x01, 0x20, 0xe6, 0x2b,
  0x29, 0xd3, 0xd5, 0x11, 0x09, 0xe7, 0x15, 0xdc, 0x01, 0xde, 0xe3, 0xea,
  0x09, 0x02, 0xe1, 0xfa, 0xd1, 0x16, 0xd2, 0xef, 0xd8, 0xfe, 0xf2, 0x21,
  0xfa, 0x07, 0xef, 0x0e, 0x08, 0x1e, 0x44, 0x3d, 0x4b, 0x41, 0xc8, 0xdb,
  0xee, 0xea, 0xfe, 0x41, 0xeb, 0xe7, 0xf6, 0x42, 0x46, 0xe0, 0x6f, 0x12,
  0x30, 0xf5, 0xfa, 0x14, 0xcf, 0xe6, 0x23, 0x23, 0x09, 0x06, 0x0c, 0xaf,
  0xf9, 0x9e, 0xce, 0x64, 0x3f, 0x3a, 0xf1, 0x09, 0x3c, 0xf4, 0x4e, 0x3e,
  0x11, 0x1c, 0xdc, 0xe5, 0x3c, 0x14, 0x08, 0x37, 0x43, 0x04, 0x0a, 0xa5,
  0xee, 0xe3, 0xdc, 0x18, 0xd6, 0xe8, 0x16, 0xfd, 0x0b, 0x01, 0xa1, 0xd3,
  0xff, 0x07, 0x1a, 0xdf, 0xff, 0x2c, 0x26, 0x1a, 0x0f, 0x39, 0xe2, 0x11,
  0x56, 0x36, 0x12, 0x04, 0xf7, 0x41, 0x11, 0xed, 0x10, 0x1a, 0x1e, 0x26,
  0xdc, 0x38, 0x11, 0xf1, 0x23, 0xde, 0x11, 0xed, 0x24, 0xca, 0x3d, 0x16,
  0xec, 0x06, 0x06, 0x06, 0x07, 0xfd, 0x22, 0xf1, 0xeb, 0xe3, 0xaa, 0xd7,
  0x0e, 0xf5, 0xd2, 0xe7, 0x22, 0x0d, 0xf2, 0xf6, 0x33, 0x25, 0x3d, 0x10,
  0xe9, 0xe3, 0xe4, 0xe9, 0xf2, 0xd2, 0x09, 0x4c, 0x30, 0x11, 0x05, 0x49,
  0xfe, 0x5d, 0xb4, 0x0b, 0xea, 0x09, 0xcd, 0x46, 0x30, 0x0c, 0xf6, 0xe6,
  0xfd, 0x35, 0x0e, 0x4b, 0xe4, 0x45, 0xe3, 0x1a, 0x69, 0x06, 0xe8, 0x52,
  0xfc, 0xf7, 0xd6, 0xe0, 0xd3, 0x10, 0x4f, 0x60, 0x02, 0x1e, 0xf6, 0xfc,
  0x28, 0x17, 0x13, 0x10, 0x69, 0xd0, 0xfc, 0x17, 0x36, 0x24, 0xf3, 0x50,
  0xff, 0x0f, 0x26, 0x10, 0xeb, 0x16, 0x0f, 0x59, 0x24, 0x12, 0x14, 0xfb,
  0x0a, 0x20, 0xa7, 0x05, 0xc0, 0x48, 0x48, 0x4b, 0xa4, 0xda, 0xd6, 0xba,
  0x96, 0xa7, 0xdc, 0xb5, 0x2e, 0xae, 0xd4, 0x81, 0xf0, 0xf6, 0xb3, 0xcb,
  0xcd, 0x2d, 0x14, 0x23, 0x9b, 0xbd, 0xbe, 0xf0, 0x32, 0xd2, 0xee, 0x96,
  0x97, 0x2a, 0xd9, 0xf1, 0xa5, 0xbe, 0xed, 0xb8, 0x27, 0x31, 0xe8, 0xd0,
  0x38, 0xce, 0xb2, 0x35, 0xf8, 0x23, 0xfa, 0x1e, 0xca, 0x46, 0xa1, 0x1d,
  0xcb, 0x22, 0x00, 0x1b, 0x32, 0x9d, 0xc6, 0xae, 0x22, 0xc3, 0xe1, 0x0d,
  0x0e, 0x26, 0x12, 0xad, 0xb6, 0x1a, 0x54, 0xd8, 0x1d, 0x33, 0x0e, 0x1d,
  0x18, 0x9a, 0xdd, 0x9f, 0x24, 0xaa, 0x12, 0xfd, 0xd2, 0x2f, 0xda, 0xe1,
  0xda, 0xa5, 0xe5, 0x01, 0x13, 0xf5, 0xff, 0x20, 0x1d, 0xef, 0x8b, 0xbe,
  0xd8, 0x18, 0xd5, 0xe6, 0xff, 0x0d, 0x07, 0xcc, 0x28, 0xe5, 0xf5, 0xbf,
  0x16, 0xe4, 0x2b, 0xbc, 0x06, 0xdd, 0xf4, 0x38, 0x39, 0x2d, 0xcb, 0x1a,
  0xd6, 0xf4, 0xe3, 0xfc, 0xda, 0xbf, 0x24, 0x09, 0x1d, 0xc3, 0xc8, 0xcf,
  0x1f, 0x98, 0xc6, 0x43, 0xf6, 0x2d, 0xff, 0xfc, 0xef, 0xd2, 0xe4, 0xf1,
  0xdf, 0xd6, 0xbc, 0xde, 0x28, 0xb2, 0xb9, 0xc0, 0xa3, 0xf6, 0xf4, 0xfd,
  0xc3, 0xae, 0x57, 0x59, 0xd6, 0x40, 0xe5, 0xfe, 0x1d, 0x1c, 0xdf, 0xc8,
  0xc7, 0xb3, 0x0e, 0xf5, 0xf1, 0xb8, 0x27, 0x38, 0xe6, 0x13, 0x02, 0xc4,
  0xb5, 0x3a, 0x0f, 0x59, 0xd9, 0x2a, 0xb9, 0x28, 0x4e, 0x07, 0xe5, 0x01,
  0xba, 0x50, 0xcf, 0xc3, 0xc7, 0xd5, 0xe4, 0x40, 0xa2, 0x40, 0x00, 0x00,
  0xe6, 0x0f, 0x0d, 0xe3, 0x33, 0x4a, 0x15, 0x10, 0x1a, 0x9b, 0xdb, 0x44,
  0xd7, 0x0a, 0x54, 0xe9, 0xab, 0x03, 0xbc, 0xee, 0xff, 0x13, 0xaa, 0x14,
  0xc1, 0xcd, 0x34, 0x2a, 0xe0, 0x53, 0x0e, 0x40, 0x0f, 0xf6, 0xf5, 0xe2,
  0xf4, 0xf9, 0xe0, 0xe7, 0x07, 0x14, 0x15, 0xe1, 0x0f, 0xd2, 0xf1, 0x03,
  0xf0, 0x3e, 0xc9, 0x24, 0xf0, 0xb6, 0xff, 0x0b, 0x44, 0x31, 0xda, 0x17,
  0x24, 0x0b, 0xec, 0x36, 0x31, 0x3a, 0x48, 0x49, 0x51, 0xb1, 0x2d, 0xc2,
  0xc3, 0xb2, 0x18, 0xbf, 0x01, 0x09, 0x23, 0x39, 0xb4, 0x30, 0x30, 0xde,
  0xdd, 0x1e, 0xeb, 0xd9, 0x02, 0x05, 0xfd, 0xb0, 0x07, 0xc1, 0xa6, 0xa4,
  0x96, 0x3a, 0x04, 0x30, 0x01, 0x3c, 0xce, 0xd6, 0xee, 0x04, 0x07, 0x2e,
  0xf6, 0xf4, 0xf7, 0xf6, 0xc0, 0xb0, 0xee, 0x18, 0xf5, 0x12, 0xe4, 0x28,
  0xe2, 0x23, 0xc7, 0xec, 0xc6, 0xfe, 0x28, 0xf1, 0xe0, 0x2c, 0xec, 0x35,
  0xe6, 0xd2, 0x0d, 0xcf, 0x39, 0xb2, 0xec, 0x10, 0x83, 0xf6, 0xbc, 0xd8,
  0xbb, 0xce, 0x98, 0xb1, 0x99, 0x98, 0x10, 0x2f, 0x46, 0x1e, 0x25, 0x24,
  0xeb, 0x25, 0xd9, 0xe3, 0x24, 0xde, 0xfb, 0xa6, 0x35, 0xe9, 0x39, 0xd1,
  0x41, 0x13, 0x4c, 0x36, 0xe5, 0xe9, 0xcb, 0xda, 0x17, 0xfd, 0xdd, 0x17,
  0xd6, 0xc4, 0x52, 0xcd, 0x05, 0xfb, 0xef, 0x11, 0xfb, 0xf3, 0x40, 0xa0,
  0x04, 0x1e, 0x15, 0xf1, 0xfe, 0xf7, 0x12, 0x49, 0xf8, 0xdb, 0xd2, 0xd1,
  0xee, 0xe7, 0x7e, 0xc4, 0xf8, 0xe0, 0xf3, 0xda, 0xff, 0xd0, 0x08, 0x58,
  0x56, 0x08, 0x0e, 0xfe, 0x03, 0xc9, 0x3e, 0x03, 0xbf, 0x1d, 0x0a, 0xe4,
  0xe7, 0xe0, 0x46, 0x7f, 0x15, 0xfb, 0x14, 0x13, 0x26, 0xe5, 0xed, 0x10,
  0xfb, 0x32, 0x12, 0xeb, 0xf4, 0x14, 0xf6, 0x41, 0x16, 0x3a, 0xfa, 0xf9,
  0x23, 0x3f, 0xec, 0x61, 0xf2, 0x4b, 0x04, 0x13, 0xf3, 0x1a, 0xd8, 0x12,
  0xf1, 0xff, 0x1f, 0xce, 0x1b, 0xe2, 0x5b, 0xeb, 0xcf, 0xfb, 0xdf, 0xef,
  0xfc, 0x01, 0x4a, 0xeb, 0x21, 0xfa, 0x25, 0xc3, 0x5a, 0xf1, 0x35, 0xbb,
  0xc2, 0xd9, 0xf8, 0x00, 0x0c, 0xfc, 0xf3, 0xe7, 0x09, 0x15, 0x33, 0xf0,
  0x23, 0xcd, 0xf9, 0xfe, 0x11, 0x12, 0xf1, 0x00, 0xe9, 0x0d, 0x17, 0x06,
  0xd9, 0xe1, 0x14, 0xf3, 0xfd, 0x00, 0xb8, 0xf9, 0x28, 0x0e, 0x09, 0x19,
  0x1c, 0x02, 0xae, 0x16, 0xab, 0xe7, 0xe0, 0x09, 0xea, 0x49, 0xc8, 0x40,
  0x4e, 0xe8, 0x37, 0x6b, 0xe1, 0x0a, 0xcd, 0x29, 0x02, 0x0e, 0x1e, 0xd7,
  0x69, 0x09, 0x24, 0x28, 0xea, 0xf3, 0xe7, 0x0b, 0x22, 0x2d, 0xfa, 0xd7,
  0x15, 0x12, 0x34, 0xa7, 0x41, 0x1d, 0x0f, 0xf4, 0xfd, 0x15, 0xfc, 0xdb,
  0x19, 0x1c, 0x26, 0xd4, 0x1a, 0x1b, 0x46, 0x18, 0xf2, 0x18, 0x3c, 0x39,
  0xdf, 0x1a, 0x1e, 0x0d, 0x56, 0x24, 0x23, 0xfc, 0xdb, 0xf0, 0xe6, 0x22,
  0x13, 0xf3, 0x1b, 0x03, 0x27, 0xe6, 0x25, 0x0a, 0x12, 0x2c, 0x0c, 0xfd,
  0xd9, 0xe6, 0x00, 0x0e, 0xdf, 0x0b, 0x32, 0x31, 0x42, 0xfa, 0x2e, 0x01,
  0x0c, 0xcb, 0x13, 0x1f, 0x0b, 0x0b, 0x10, 0x58, 0xc4, 0x15, 0x0a, 0x20,
  0x3d, 0x0b, 0x04, 0x20, 0x08, 0xe1, 0x10, 0x23, 0x07, 0xf3, 0x2d, 0x2e,
  0xfe, 0x01, 0x01, 0x19, 0x22, 0x0f, 0x07, 0xff, 0x18, 0x05, 0x13, 0x08,
  0x25, 0x2b, 0x03, 0x34, 0xfc, 0x09, 0x14, 0x0c, 0x04, 0x07, 0xe5, 0x19,
  0x28, 0x34, 0x38, 0x0e, 0x07, 0xee, 0x23, 0xf6, 0x41, 0x14, 0x3e, 0x0a,
  0x15, 0xf0, 0xfc, 0xe0, 0xfa, 0x1c, 0x32, 0xf9, 0x33, 0xf1, 0x10, 0x0b,
  0xe5, 0xf2, 0x22, 0xcd, 0xef, 0xed, 0xc8, 0xe8, 0x12, 0xe9, 0x35, 0xfd,
  0x0f, 0xcf, 0x27, 0xff, 0x9a, 0x12, 0xe8, 0xec, 0x35, 0xdb, 0x1c, 0x22,
  0xfe, 0xfa, 0x12, 0x03, 0x04, 0xfb, 0xff, 0xf4, 0x11, 0x0c, 0x10, 0x16,
  0x16, 0xfe, 0x44, 0x1c, 0xf7, 0xc3, 0x14, 0xe8, 0x27, 0x26, 0x21, 0x1b,
  0x06, 0x31, 0x1e, 0x28, 0xfb, 0x0d, 0xf8, 0x04, 0x06, 0x3d, 0xf6, 0xdd,
  0x1c, 0xfc, 0x37, 0x07, 0x28, 0x08, 0x5b, 0x26, 0x18, 0xff, 0x2c, 0xe5,
  0xdd, 0x0e, 0x1b, 0xfb, 0x1c, 0x20, 0xef, 0x1f, 0x21, 0xf8, 0x44, 0x00,
  0xcc, 0xd9, 0x0e, 0xfc, 0x06, 0x1e, 0x36, 0xf1, 0xec, 0x14, 0xfc, 0x12,
  0xcf, 0xa6, 0xd7, 0xe1, 0xf2, 0xbe, 0xc3, 0xd1, 0x0c, 0xe6, 0xd2, 0xf6,
  0xe9, 0x05, 0x36, 0xfc, 0xdf, 0xf0, 0x9c, 0x21, 0xf9, 0xee, 0x30, 0x27,
  0x2b, 0xce, 0xd7, 0xb0, 0xc4, 0xfe, 0x23, 0x2b, 0xc8, 0x0b, 0xa5, 0x24,
  0x25, 0xf0, 0xf8, 0x23, 0x30, 0x29, 0xee, 0xa1, 0xbd, 0xec, 0x15, 0x3d,
  0x02, 0x37, 0xf3, 0x28, 0x22, 0xef, 0x3b, 0x1c, 0x02, 0xf3, 0xdb, 0x11,
  0xcc, 0xec, 0xf3, 0x0f, 0x00, 0x14, 0x04, 0x1e, 0x37, 0xed, 0xf9, 0x13,
  0x01, 0xe9, 0xbb, 0xf6, 0xfa, 0x1a, 0xf4, 0xea, 0x28, 0x05, 0xd0, 0xf6,
  0x0f, 0xd9, 0x14, 0xe6, 0xe6, 0x21, 0xdb, 0xc2, 0x19, 0x01, 0x0d, 0x04,
  0xfc, 0x2f, 0xae, 0x06, 0x2e, 0xfc, 0x06, 0xe0, 0xe7, 0x03, 0xf3, 0xcf,
  0xf0, 0xf7, 0x4c, 0x16, 0xfe, 0x1d, 0x1a, 0x23, 0x1b, 0x19, 0x48, 0x23,
  0x17, 0x29, 0x15, 0xed, 0xfa, 0x16, 0x29, 0x13, 0xe2, 0x39, 0xfe, 0x02,
  0x36, 0xfb, 0x0e, 0xed, 0xdb, 0xf5, 0x09, 0xf1, 0xe4, 0xf6, 0xdb, 0xe9,
  0xe4, 0x1c, 0x03, 0x09, 0x04, 0xd1, 0x18, 0x0c, 0xff, 0x19, 0xfe, 0xeb,
  0x03, 0xf9, 0xfe, 0x0e, 0x3a, 0x26, 0xff, 0x2d, 0x1e, 0xed, 0xe2, 0xe6,
  0xed, 0xf2, 0xfe, 0x12, 0x21, 0x1a, 0xfe, 0x35, 0x11, 0x40, 0x09, 0xf3,
  0x48, 0xf9, 0xea, 0xf8, 0x25, 0x27, 0x1d, 0xd2, 0x27, 0x2e, 0x13, 0x17,
  0xf5, 0x3e, 0x03, 0x2d, 0x0f, 0xd1, 0x2a, 0xfc, 0x0a, 0xef, 0x00, 0xd8,
  0x1d, 0x25, 0xda, 0x35, 0x0c, 0xfb, 0x22, 0x06, 0x10, 0xe6, 0x1b, 0x1a,
  0xe9, 0x39, 0xf3, 0x0e, 0xf6, 0xee, 0xf6, 0xfd, 0x0b, 0xeb, 0x20, 0x1c,
  0x2d, 0xe6, 0xfc, 0x0d, 0x11, 0x17, 0x0a, 0x1d, 0x09, 0xf4, 0xef, 0x53,
  0xd3, 0x13, 0x28, 0x05, 0xfa, 0x19, 0xdc, 0xd9, 0xdc, 0xe4, 0x0b, 0x15,
  0xf0, 0x02, 0xfd, 0x4a, 0xe8, 0x25, 0x45, 0x0f, 0x69, 0xbf, 0x2c, 0x04,
  0x22, 0x0a, 0xdf, 0xef, 0x0e, 0xfe, 0xe3, 0x20, 0xe2, 0x4a, 0xca, 0x29,
  0x45, 0xef, 0x1f, 0xf0, 0xf2, 0xc4, 0xc3, 0xf7, 0x48, 0x01, 0x18, 0xd0,
  0x09, 0xde, 0x18, 0xfd, 0xe3, 0x04, 0xce, 0x2b, 0xe6, 0x2e, 0xfd, 0x1b,
  0x13, 0x1f, 0xe1, 0xb4, 0x30, 0xc1, 0x15, 0xd4, 0xbe, 0x23, 0xf8, 0x04,
  0x09, 0x22, 0xfe, 0x09, 0xf2, 0x18, 0xe3, 0x3c, 0xcd, 0x20, 0x01, 0xe2,
  0x08, 0x10, 0xe7, 0x22, 0x16, 0xfe, 0xe7, 0xfb, 0xc1, 0xb5, 0xf6, 0x7f,
  0xe5, 0xfd, 0x0e, 0x07, 0x64, 0x16, 0x33, 0x48, 0xc2, 0xe2, 0xf5, 0x2e,
  0x35, 0xc3, 0xa8, 0x1e, 0xd8, 0xdc, 0x27, 0xdf, 0xda, 0x0d, 0x04, 0x5a,
  0xf0, 0xd2, 0x05, 0x33, 0x51, 0x08, 0xf7, 0xc2, 0x2f, 0xf9, 0x19, 0xf2,
  0xa0, 0xfb, 0xeb, 0xd8, 0xc9, 0x37, 0x40, 0x12, 0x3b, 0x01, 0xfa, 0xf6,
  0x00, 0xf8, 0x08, 0xfa, 0x89, 0x1b, 0xc2, 0x27, 0xe1, 0x15, 0x17, 0xf7,
  0xf2, 0xfa, 0x11, 0x07, 0x2a, 0x13, 0x1b, 0x0a, 0x1f, 0xe1, 0x15, 0xf6,
  0x0d, 0x23, 0xff, 0x0c, 0x33, 0xf3, 0x02, 0xfe, 0x16, 0xdc, 0x28, 0xf1,
  0xfe, 0xd6, 0xdb, 0x02, 0x0d, 0xfb, 0x21, 0x02, 0x1e, 0xf4, 0x05, 0xf8,
  0xfb, 0xb8, 0x2a, 0xdf, 0x05, 0x01, 0x05, 0x02, 0xff, 0xf7, 0x32, 0x21,
  0x13, 0xe8, 0xef, 0x05, 0x01, 0xf1, 0x0f, 0xde, 0x02, 0x02, 0xf6, 0x0c,
  0x0e, 0x05, 0xf9, 0x19, 0x17, 0x0d, 0x18, 0x0c, 0xf2, 0x1b, 0xf5, 0x03,
  0x02, 0x1f, 0x04, 0x23, 0xfd, 0x18, 0x21, 0x0f, 0xec, 0x00, 0xf7, 0xf5,
  0x46, 0x24, 0x36, 0xf7, 0x07, 0xe4, 0x03, 0x00, 0x02, 0x1f, 0xf7, 0xdf,
  0xf8, 0x16, 0xf8, 0x14, 0x1c, 0xf4, 0x34, 0xee, 0x07, 0xee, 0xce, 0xea,
  0x0f, 0x07, 0x2b, 0xf0, 0x1a, 0x1c, 0xfc, 0x14, 0xff, 0x09, 0x4a, 0xe5,
  0x0f, 0x04, 0xfc, 0x0c, 0x0e, 0x23, 0xf7, 0x0a, 0x08, 0xf9, 0xe6, 0x11,
  0x16, 0xd7, 0x02, 0x25, 0xde, 0x11, 0xf8, 0x39, 0x1c, 0x35, 0xfd, 0x12,
  0xca, 0x1a, 0xf3, 0x17, 0x19, 0xd6, 0xf2, 0x1c, 0xea, 0x30, 0x22, 0x2d,
  0x18, 0x1f, 0xd7, 0x0c, 0xfe, 0xeb, 0x02, 0x15, 0xcb, 0xf4, 0x03, 0xf7,
  0xeb, 0xfe, 0xfe, 0xf7, 0xf2, 0x05, 0x0d, 0xf2, 0x00, 0x18, 0xf7, 0x23,
  0xea, 0x02, 0x47, 0x03, 0xec, 0x11, 0x30, 0x41, 0xea, 0xe1, 0xf0, 0x1c,
  0xf1, 0x28, 0xf0, 0xef, 0xf1, 0xe0, 0x2c, 0xff, 0xf4, 0x32, 0x06, 0x30,
  0xf8, 0x07, 0xfb, 0x3c, 0x0e, 0x15, 0x08, 0xeb, 0x17, 0x1e, 0xe2, 0xfc,
  0xe5, 0xf6, 0xd6, 0x0b, 0x1e, 0x1d, 0xff, 0x05, 0x2d, 0x14, 0x06, 0xe7,
  0x17, 0x12, 0x12, 0x07, 0xf7, 0x0b, 0xfb, 0xe1, 0xec, 0x29, 0x27, 0x0d,
  0xec, 0x07, 0xfe, 0xeb, 0x05, 0x08, 0x21, 0xfd, 0xff, 0xf6, 0x10, 0xfd,
  0xe3, 0xf5, 0xeb, 0x0c, 0xfd, 0x09, 0xf8, 0xef, 0x47, 0x07, 0x48, 0x07,
  0x03, 0x23, 0x21, 0xfb, 0xf0, 0xe1, 0xed, 0x49, 0x15, 0xf1, 0xe1, 0xdf,
  0x16, 0xe4, 0x35, 0x01, 0xdf, 0x12, 0xe4, 0x05, 0xe9, 0xfd, 0xea, 0x1f,
  0x01, 0x08, 0xf7, 0x0b, 0x09, 0xf1, 0xe0, 0x1a, 0xd2, 0x12, 0x09, 0xea,
  0x08, 0x05, 0xcd, 0x1b, 0xef, 0x0f, 0x04, 0xdb, 0xf7, 0xfb, 0x03, 0x16,
  0xf5, 0x06, 0x17, 0xf4, 0x08, 0x04, 0xe5, 0x17, 0xfb, 0x0c, 0x21, 0x0e,
  0xf0, 0xe1, 0x07, 0xf3, 0x21, 0x05, 0xe1, 0x1d, 0x09, 0x0f, 0x04, 0x10,
  0xe2, 0xe7, 0xbb, 0xdd, 0x09, 0xda, 0x7f, 0xca, 0xee, 0x10, 0xdf, 0xf0,
  0xb7, 0x04, 0x00, 0x2f, 0x21, 0x10, 0xc6, 0xcb, 0x27, 0x05, 0x1a, 0xf4,
  0xe9, 0x19, 0xb8, 0xcd, 0xdd, 0x0d, 0x16, 0x1c, 0x15, 0x05, 0xfd, 0xc8,
  0xfd, 0x02, 0xfa, 0xfc, 0x09, 0xe0, 0xd3, 0xfc, 0xc9, 0x15, 0x06, 0x0e,
  0xcd, 0xea, 0x0c, 0xba, 0x03, 0xec, 0xee, 0xfc, 0x2a, 0xe8, 0xdf, 0xdc,
  0xe8, 0xe6, 0xed, 0xef, 0x20, 0x97, 0x31, 0xc4, 0x38, 0x05, 0xc5, 0xcf,
  0x14, 0x28, 0x48, 0x0d, 0x36, 0xff, 0xf2, 0xdb, 0xba, 0xd7, 0xf5, 0x91,
  0xb9, 0xf7, 0xe7, 0x56, 0x20, 0xa9, 0x09, 0x2a, 0x36, 0x03, 0xbc, 0x17,
  0x1e, 0xac, 0xee, 0xd1, 0x29, 0xb9, 0x29, 0x1a, 0xf7, 0xf0, 0xd3, 0xe7,
  0x96, 0xb3, 0xc5, 0xda, 0x0f, 0xb4, 0x1a, 0xff, 0x49, 0x0b, 0xb1, 0x54,
  0x06, 0x4b, 0xb5, 0xab, 0xd4, 0x36, 0x32, 0xd9, 0x04, 0xba, 0xb9, 0x2a,
  0xb2, 0x4e, 0xfa, 0xfe, 0xce, 0xd9, 0xfd, 0x4d, 0x07, 0xa0, 0x20, 0x9c,
  0xdb, 0x8c, 0x2d, 0xca, 0x98, 0x8e, 0xe6, 0x3c, 0xb8, 0xb4, 0x3d, 0xab,
  0xf7, 0x14, 0xef, 0xd7, 0x2b, 0x8c, 0xcc, 0xaf, 0xb5, 0xfd, 0xe6, 0xd4,
  0x3d, 0xd9, 0x24, 0xde, 0xf4, 0xee, 0xe2, 0x1f, 0x8c, 0xc2, 0xed, 0xeb,
  0xf6, 0xe6, 0x22, 0xce, 0xcd, 0xb3, 0xc5, 0xda, 0x97, 0xf6, 0xbb, 0x41,
  0xa0, 0xd9, 0xa1, 0x3a, 0xdc, 0x41, 0x88, 0xa2, 0xc0, 0x40, 0xd4, 0x3e,
  0x20, 0x3c, 0x9f, 0x46, 0x0a, 0xd6, 0x02, 0x9b, 0xb5, 0x42, 0xe0, 0x1d,
  0xe5, 0x87, 0xde, 0x0a, 0x0d, 0x1a, 0xc5, 0x10, 0x2d, 0xce, 0xb8, 0x16,
  0x36, 0xc8, 0xe1, 0x0f, 0x33, 0x0e, 0xfb, 0x09, 0x04, 0xb8, 0xd4, 0xaa,
  0x3c, 0x06, 0xd3, 0x0d, 0x84, 0x97, 0xb8, 0x0c, 0x32, 0xd6, 0x02, 0xca,
  0x03, 0x98, 0xd8, 0x32, 0x20, 0x93, 0xae, 0xab, 0xf2, 0x1e, 0x4e, 0xea,
  0xd2, 0x1d, 0xeb, 0x36, 0x37, 0xa0, 0xca, 0x06, 0x01, 0xfd, 0xa6, 0x21,
  0x86, 0xeb, 0x25, 0x32, 0xc5, 0x91, 0xf2, 0xc4, 0x41, 0x99, 0xf6, 0xab,
  0x81, 0x8c, 0x00, 0xb3, 0xe3, 0x89, 0xd7, 0x3a, 0xd5, 0xc6, 0xb4, 0x4f,
  0xee, 0x3d, 0xa1, 0xf2, 0x0e, 0xc7, 0x01, 0xc0, 0x16, 0xbb, 0x38, 0xd3,
  0xdf, 0xf0, 0x09, 0xf3, 0xcf, 0x40, 0xe6, 0xe7, 0x9e, 0xe5, 0x33, 0xc9,
  0xa3, 0xa2, 0x1d, 0xc3, 0x33, 0xb6, 0xcc, 0xa4, 0xe1, 0x20, 0xb8, 0x35,
  0xba, 0x28, 0xff, 0xc2, 0xa0, 0xd7, 0xed, 0xa7, 0xbe, 0x3c, 0xb3, 0x13,
  0x9c, 0x92, 0x0d, 0x2d, 0x09, 0x92, 0xe7, 0x2c, 0x20, 0x9e, 0x93, 0xfe,
  0xeb, 0x9f, 0x96, 0x21, 0x37, 0xb3, 0xec, 0x21, 0x99, 0xd9, 0x98, 0xf8,
  0x05, 0xef, 0xd4, 0x9e, 0x1d, 0x2b, 0xf4, 0xc1, 0x24, 0x24, 0x9d, 0xe2,
  0x2a, 0xcc, 0xeb, 0xb5, 0x1b, 0x37, 0xf5, 0xe2, 0x25, 0xd4, 0xf9, 0xfd,
  0x9d, 0xcb, 0xd7, 0x02, 0x86, 0xd4, 0xbd, 0xd4, 0x14, 0xcc, 0x2d, 0xd2,
  0x31, 0xb9, 0xe0, 0xe5, 0xa2, 0xd2, 0x27, 0xab, 0x01, 0x0e, 0xe8, 0x99,
  0xe4, 0xdf, 0x1e, 0xd3, 0xd3, 0x9b, 0x8e, 0xf2, 0x18, 0x54, 0x1b, 0xc1,
  0xb2, 0x43, 0xcb, 0x9a, 0xbf, 0xc6, 0x40, 0xe2, 0xc6, 0xfb, 0x1f, 0xc1,
  0xa3, 0xd5, 0x3e, 0x3f, 0x25, 0xbf, 0x90, 0xe7, 0x02, 0x10, 0xa7, 0x19,
  0xbb, 0xab, 0x12, 0xe2, 0x28, 0x00, 0xa2, 0x2b, 0x3c, 0x42, 0xef, 0xf6,
  0xdc, 0xd2, 0x16, 0xd0, 0x10, 0xdd, 0x1d, 0x0f, 0xf5, 0x28, 0x2b, 0xf8,
  0x2d, 0x1c, 0xfd, 0xd0, 0x31, 0xd3, 0xc3, 0x1a, 0xf0, 0x2f, 0xe0, 0xfe,
  0xe9, 0x3f, 0x3f, 0xf3, 0x62, 0x1f, 0x12, 0xf3, 0x0f, 0x10, 0xc3, 0x0c,
  0x1b, 0xde, 0x00, 0xe9, 0x1e, 0x17, 0x03, 0x1d, 0xf7, 0x09, 0x19, 0x21,
  0xe1, 0x10, 0x0a, 0x20, 0x34, 0xfe, 0x19, 0xe6, 0x19, 0x25, 0xba, 0xfa,
  0xe3, 0x15, 0x0b, 0x1c, 0x06, 0x48, 0xff, 0x2c, 0x2a, 0x2e, 0x03, 0xe5,
  0xe5, 0x24, 0xdc, 0x1a, 0x05, 0x11, 0xe0, 0xcd, 0xdd, 0xdb, 0xcf, 0xd3,
  0xbe, 0xfe, 0x14, 0xce, 0x8f, 0xcf, 0x17, 0x05, 0xf5, 0x29, 0x0e, 0xf5,
  0x24, 0x10, 0x08, 0x34, 0xc6, 0x07, 0x21, 0xf7, 0xe7, 0x14, 0x1b, 0xff,
  0x08, 0x13, 0xd0, 0x05, 0xf8, 0xe0, 0x17, 0x25, 0x04, 0xfa, 0xfd, 0x35,
  0x20, 0xff, 0xe8, 0xe6, 0xac, 0x1b, 0xf1, 0x39, 0xdd, 0x34, 0xef, 0x2a,
  0x5a, 0xe2, 0x0c, 0x53, 0x2d, 0xd7, 0xe1, 0xcf, 0x0c, 0x00, 0xfb, 0x12,
  0xe4, 0x3b, 0xc1, 0x46, 0x69, 0xf6, 0x36, 0x0c, 0xef, 0xc6, 0xa6, 0x1a,
  0xf0, 0xf1, 0x07, 0x1a, 0xef, 0x11, 0x0c, 0xf5, 0x17, 0xde, 0xe5, 0xe3,
  0x1d, 0xe1, 0x1a, 0x20, 0x14, 0x26, 0xfd, 0xee, 0xea, 0xf8, 0x4c, 0xf6,
  0xd9, 0x24, 0xf1, 0x12, 0x23, 0x47, 0xfc, 0xfd, 0xd3, 0x1b, 0x18, 0x11,
  0x34, 0xfb, 0x30, 0x23, 0x29, 0x21, 0x1b, 0x43, 0x1d, 0xfe, 0xe0, 0x29,
  0x1e, 0xfd, 0x31, 0x12, 0xc8, 0x29, 0xf1, 0x14, 0x7f, 0xc6, 0x0c, 0xb6,
  0xdd, 0xba, 0x0c, 0xb3, 0xf3, 0xf7, 0x1c, 0x6d, 0xe9, 0x5c, 0xfb, 0xb4,
  0x51, 0x8f, 0xbc, 0x2a, 0x39, 0x20, 0x16, 0xca, 0xfa, 0x16, 0xc2, 0x25,
  0xf7, 0xf6, 0x2d, 0x12, 0x01, 0x0d, 0x5b, 0x26, 0x14, 0x3e, 0x25, 0xbf,
  0x17, 0x02, 0xf2, 0x0b, 0xe7, 0x27, 0x01, 0x14, 0xfa, 0xf6, 0xe0, 0xfa,
  0xfa, 0x17, 0x20, 0xef, 0xb0, 0x07, 0x2f, 0xe1, 0x00, 0x10, 0x4e, 0xf8,
  0x1d, 0x2f, 0x0f, 0xdc, 0x39, 0x44, 0x14, 0x22, 0xf5, 0xd1, 0x05, 0xee,
  0xf2, 0x1d, 0x6b, 0xdf, 0x2e, 0x28, 0xe8, 0xe9, 0x1f, 0xf0, 0x50, 0xf5,
  0x2e, 0xf5, 0xe0, 0x0a, 0x37, 0x07, 0x0e, 0x00, 0xed, 0x16, 0xcf, 0xa7,
  0xfd, 0x00, 0x3a, 0x1b, 0x28, 0x38, 0xf2, 0x0b, 0x42, 0xe4, 0x04, 0xe7,
  0xff, 0xee, 0xdf, 0xd1, 0x0b, 0x2f, 0x0f, 0x1e, 0x23, 0x29, 0x11, 0x32,
  0x19, 0x50, 0xe4, 0x2a, 0x35, 0xef, 0xc6, 0x22, 0xfe, 0x0a, 0x25, 0xdf,
  0xbe, 0x10, 0x5b, 0x40, 0xf4, 0x23, 0xd5, 0x38, 0x37, 0x19, 0x23, 0x00,
  0x2e, 0x2f, 0xec, 0x21, 0xa7, 0x1d, 0x02, 0x30, 0xd2, 0xdc, 0x1c, 0x1c,
  0x12, 0x62, 0x28, 0x3d, 0x07, 0xdd, 0xa0, 0x4a, 0xfb, 0x10, 0xa2, 0xf9,
  0xf4, 0xbb, 0x0b, 0xfb, 0xa4, 0x09, 0x0d, 0xef, 0xe6, 0x03, 0xaf, 0x2a,
  0x07, 0x1b, 0x0f, 0x27, 0x2d, 0xcb, 0xef, 0xc6, 0x0a, 0xf5, 0xe1, 0xdc,
  0x25, 0x14, 0xd7, 0xde, 0xe4, 0x0d, 0xd8, 0x13, 0x0a, 0xaf, 0xc6, 0xc8,
  0xde, 0xf5, 0xe9, 0xf3, 0xb6, 0x19, 0xe6, 0x07, 0xfd, 0xe8, 0x24, 0x09,
  0x2c, 0x2b, 0xd1, 0x13, 0x10, 0x27, 0x13, 0x0c, 0x04, 0xde, 0xe1, 0xff,
  0x16, 0x1f, 0xf4, 0x10, 0x23, 0xea, 0xd9, 0xea, 0x15, 0x02, 0x42, 0xf2,
  0xff, 0x0b, 0xe8, 0x35, 0xeb, 0x15, 0xf9, 0xf2, 0x2a, 0xc4, 0xff, 0xfb,
  0xe9, 0x3d, 0xd5, 0x18, 0x39, 0x17, 0x38, 0x06, 0x1b, 0xdc, 0x26, 0xf7,
  0x2b, 0xd6, 0xf0, 0x0c, 0xb4, 0x22, 0xf3, 0xd3, 0xd7, 0x26, 0x05, 0xfd,
  0xbc, 0x09, 0x16, 0x2f, 0xa5, 0xe1, 0xeb, 0x30, 0xf4, 0xf3, 0x22, 0x36,
  0xca, 0xdc, 0xd8, 0x27, 0x1d, 0xda, 0xc3, 0x4b, 0xe1, 0xe8, 0xe9, 0xde,
  0xee, 0x2f, 0x19, 0x39, 0xda, 0x0f, 0xb2, 0xd8, 0xc8, 0x1f, 0xed, 0xfa,
  0xff, 0xed, 0xe5, 0x1c, 0x21, 0x36, 0xf0, 0x1d, 0xd8, 0x1b, 0xf8, 0x08,
  0xbb, 0x31, 0x07, 0xf0, 0x22, 0xf7, 0x24, 0x1d, 0x0f, 0x35, 0xd0, 0xc1,
  0x2c, 0x3a, 0xfb, 0xf2, 0x0e, 0xed, 0xc8, 0xf0, 0x4a, 0xbe, 0x19, 0xb0,
  0xfb, 0x1d, 0x10, 0xe4, 0xf7, 0x40, 0xd9, 0xe1, 0xfb, 0x0c, 0xec, 0xcc,
  0x3c, 0xa4, 0x42, 0xc6, 0xe8, 0xf9, 0xdc, 0xe1, 0xb1, 0x35, 0xe9, 0x29,
  0xfa, 0x30, 0x1e, 0xa0, 0x32, 0xc1, 0xe9, 0x01, 0xdc, 0x54, 0x32, 0xf7,
  0x0f, 0x33, 0x1c, 0x39, 0xc9, 0xe3, 0x4b, 0xef, 0x04, 0x1a, 0x34, 0x01,
  0x1f, 0x04, 0x39, 0x39, 0xef, 0xbe, 0xfb, 0xab, 0x0e, 0x1d, 0xf0, 0x60,
  0x21, 0x12, 0x43, 0xff, 0x58, 0xd6, 0x1d, 0x0a, 0x04, 0xdb, 0x40, 0x1d,
  0xf1, 0x07, 0x32, 0xc9, 0x2a, 0xed, 0x33, 0xf7, 0xf2, 0xe1, 0xe9, 0xd3,
  0x1d, 0x45, 0x1c, 0xad, 0x19, 0xf5, 0x2c, 0xd6, 0x17, 0x11, 0x4e, 0x9b,
  0xf0, 0xc3, 0xbb, 0xd2, 0x12, 0x14, 0x1a, 0xa4, 0xd5, 0xdb, 0x3a, 0xf9,
  0x0f, 0x07, 0x07, 0xf0, 0x01, 0xda, 0xf6, 0xf8, 0xe0, 0xef, 0x38, 0xe1,
  0x26, 0xf2, 0xe2, 0xca, 0xd8, 0xff, 0x4c, 0x20, 0xe5, 0x13, 0x09, 0x07,
  0xc8, 0x1d, 0x31, 0xf9, 0xfd, 0x23, 0xd7, 0xff, 0x34, 0xad, 0x32, 0x28,
  0x9a, 0xf5, 0xc0, 0xb2, 0xf6, 0xfb, 0x16, 0x3a, 0x34, 0x12, 0x5b, 0x25,
  0x5f, 0x2a, 0x1c, 0x39, 0x56, 0xee, 0xf8, 0xf1, 0x21, 0x26, 0x67, 0x02,
  0x2c, 0xe2, 0xef, 0x39, 0x06, 0x14, 0xf9, 0x12, 0x32, 0x02, 0xe9, 0x3a,
  0x4b, 0x26, 0x13, 0x06, 0xdc, 0xea, 0xff, 0x26, 0xbf, 0x0e, 0xea, 0x07,
  0x17, 0x63, 0xf2, 0x1a, 0xd3, 0x0a, 0x0e, 0x02, 0x93, 0x29, 0xd0, 0x0d,
  0xda, 0xd6, 0x9c, 0x40, 0xe4, 0x05, 0xea, 0x18, 0xc0, 0x15, 0xd2, 0x6e,
  0x81, 0xcc, 0xf3, 0x95, 0xed, 0x8b, 0xe3, 0x2d, 0x9d, 0x02, 0xb1, 0x9d,
  0xaf, 0x1d, 0x87, 0x0b, 0x1d, 0x02, 0x03, 0x06, 0x3a, 0x16, 0x19, 0xfe,
  0x07, 0x13, 0xeb, 0xf5, 0x10, 0x05, 0xe7, 0x14, 0x2e, 0x17, 0xf3, 0xff,
  0x47, 0x2c, 0x25, 0x3c, 0x20, 0x19, 0xfc, 0xe1, 0x06, 0x06, 0x3f, 0x22,
  0x06, 0xec, 0xe0, 0x12, 0x28, 0x12, 0x17, 0x2a, 0x1a, 0x11, 0xda, 0xd7,
  0xed, 0xfe, 0xfe, 0x1b, 0xcf, 0xed, 0xe9, 0x07, 0x07, 0x03, 0xef, 0xf0,
  0x01, 0xdd, 0xed, 0xd5, 0xf1, 0xef, 0xd8, 0xfb, 0xa6, 0xcf, 0xaf, 0xe6,
  0xef, 0xe3, 0x0c, 0x1e, 0xfa, 0xe1, 0xde, 0xeb, 0xdd, 0xe6, 0xac, 0xff,
  0x29, 0x03, 0xee, 0x01, 0x41, 0xf5, 0x0e, 0x10, 0xfd, 0x1c, 0x0e, 0xf5,
  0x0d, 0xdf, 0xeb, 0x15, 0xe4, 0x0f, 0xf2, 0x41, 0x08, 0x04, 0xfd, 0x30,
  0x12, 0x0b, 0xfb, 0x25, 0x1c, 0x18, 0x0c, 0x06, 0x1e, 0x11, 0x23, 0x3f,
  0x0f, 0x4b, 0x34, 0xf5, 0x4e, 0xdf, 0xe9, 0x18, 0x24, 0xfb, 0x0d, 0xfe,
  0xe3, 0xdb, 0x1b, 0x4c, 0xe0, 0x1e, 0x0d, 0xf1, 0x7f, 0xd9, 0x18, 0x3a,
  0x0f, 0x0c, 0xc5, 0xf3, 0xb5, 0xcf, 0xff, 0x3f, 0xf2, 0xd7, 0xdb, 0xcd,
  0x34, 0xc4, 0xea, 0x43, 0x28, 0x10, 0xfa, 0xc5, 0xfb, 0x19, 0xe7, 0x17,
  0xf4, 0x0e, 0x12, 0xee, 0x00, 0x02, 0x04, 0x04, 0xff, 0xd9, 0x24, 0x2c,
  0xf4, 0x0c, 0xde, 0x09, 0xeb, 0xd5, 0x24, 0x08, 0xef, 0xef, 0x2c, 0x13,
  0x01, 0x33, 0x30, 0x2f, 0x13, 0xec, 0x11, 0x36, 0x02, 0xef, 0x56, 0xf8,
  0xd0, 0xf9, 0x2a, 0x1e, 0x13, 0x04, 0x23, 0xfd, 0x0d, 0xf6, 0x08, 0x35,
  0x00, 0xed, 0x35, 0x11, 0x2a, 0xef, 0x1a, 0xed, 0x1a, 0xfe, 0x11, 0xe0,
  0xf1, 0xf8, 0x16, 0x22, 0xfc, 0xef, 0x16, 0xd2, 0x18, 0xfc, 0x22, 0x30,
  0x29, 0x09, 0x22, 0xc8, 0xf8, 0xfd, 0xf6, 0xe7, 0x1d, 0xf6, 0xe2, 0x10,
  0xff, 0x33, 0x1d, 0xb7, 0x0a, 0x0e, 0x0f, 0x07, 0x1b, 0x1d, 0xdc, 0xb0,
  0x12, 0xe5, 0x29, 0xea, 0xf1, 0xfe, 0xd0, 0xe4, 0xe0, 0xf7, 0x03, 0x30,
  0xf8, 0x0d, 0x07, 0xf9, 0xd8, 0x0e, 0xf9, 0x15, 0xe2, 0xf2, 0xdd, 0xd0,
  0xd3, 0xfc, 0x28, 0x0c, 0x0d, 0x1d, 0x13, 0x02, 0xf7, 0xf1, 0xf9, 0xff,
  0xac, 0xfe, 0xf5, 0x12, 0xef, 0x35, 0x10, 0x01, 0xf3, 0x01, 0x0e, 0x01,
  0x11, 0x1d, 0x13, 0x0f, 0xcd, 0x37, 0x12, 0x34, 0xfe, 0x16, 0xea, 0x0f,
  0x20, 0xf2, 0xe3, 0xf9, 0xf7, 0x00, 0x27, 0xfb, 0x1d, 0xff, 0xb1, 0xb2,
  0xd6, 0xdf, 0xef, 0xf8, 0x06, 0x0e, 0x0f, 0x09, 0x11, 0x06, 0xf5, 0xff,
  0xf8, 0xef, 0xd4, 0x04, 0xf0, 0xf0, 0xf8, 0x09, 0xf4, 0xf7, 0x02, 0xf2,
  0xc7, 0x2d, 0xdc, 0x14, 0x1a, 0x17, 0x05, 0x25, 0xe1, 0xe7, 0xcd, 0xf2,
  0x11, 0x24, 0x0d, 0xd0, 0xfb, 0x34, 0xec, 0x0e, 0x1e, 0x09, 0x0d, 0xda,
  0xfb, 0x11, 0xfd, 0x12, 0xed, 0xdc, 0xf7, 0xc5, 0xe6, 0x2d, 0x0a, 0xf1,
  0x36, 0xe8, 0xf1, 0x01, 0xff, 0xe4, 0x04, 0x1b, 0xd1, 0x09, 0xd8, 0xfe,
  0xf5, 0x15, 0xdf, 0x33, 0x1c, 0xf5, 0xd3, 0x0d, 0x00, 0x06, 0xf0, 0xfa,
  0xe7, 0x0a, 0x19, 0x27, 0xc4, 0x51, 0xbc, 0x1f, 0x05, 0xff, 0x1f, 0x22,
  0xf0, 0x01, 0xe6, 0xe3, 0xcf, 0x0f, 0x05, 0xfb, 0x1a, 0x66, 0xf7, 0x17,
  0x24, 0xd8, 0x15, 0x18, 0xfe, 0x16, 0x19, 0xb1, 0x0b, 0xd8, 0xff, 0xfb,
  0x19, 0x4d, 0x13, 0xdb, 0x1c, 0xac, 0x0b, 0x0b, 0x0f, 0x02, 0x25, 0xd1,
  0x4a, 0x10, 0x0c, 0x14, 0x03, 0xf5, 0x0b, 0xd9, 0x13, 0xbb, 0x21, 0xfa,
  0x2b, 0xdc, 0x70, 0xf4, 0xe3, 0xf5, 0x24, 0x41, 0x04, 0x22, 0xcd, 0xee,
  0x56, 0xfd, 0xf1, 0xe6, 0x16, 0xee, 0xbb, 0x3c, 0x03, 0x03, 0x08, 0x30,
  0xd0, 0x2b, 0xc6, 0xfa, 0x5d, 0x2d, 0xf5, 0x2e, 0xe8, 0x0d, 0x15, 0xe0,
  0x12, 0xf6, 0x23, 0x40, 0xfd, 0x2e, 0x2e, 0x05, 0x20, 0x1c, 0x06, 0xeb,
  0x31, 0x0b, 0x20, 0xde, 0x40, 0xe3, 0xfe, 0x09, 0x0a, 0xe1, 0x32, 0xfd,
  0xd1, 0x35, 0xf3, 0x81, 0x05, 0xff, 0x79, 0xe8, 0x6c, 0x26, 0x04, 0xf0,
  0x19, 0xf5, 0x2e, 0xee, 0xa7, 0x06, 0xf8, 0xb8, 0xe7, 0x11, 0x52, 0x0b,
  0xe0, 0xec, 0xf8, 0x33, 0xc4, 0xeb, 0xe4, 0xfe, 0x25, 0xe9, 0x38, 0x29,
  0xf1, 0x13, 0xf6, 0x34, 0xfa, 0x18, 0xe0, 0x49, 0xcc, 0x30, 0x08, 0xe6,
  0x02, 0xf2, 0x4f, 0x3d, 0xf7, 0x0c, 0xee, 0xf4, 0xfd, 0x03, 0x21, 0xfd,
  0xf6, 0x18, 0xd5, 0xdb, 0x20, 0x15, 0x0a, 0xc5, 0xd6, 0xdc, 0xf3, 0xe8,
  0x0a, 0xfd, 0x14, 0xa4, 0xe5, 0xe5, 0xdb, 0xf4, 0xe9, 0x4b, 0xee, 0xd4,
  0x13, 0xef, 0x09, 0xf4, 0x1b, 0x31, 0x0e, 0xcd, 0xf4, 0xa6, 0xdd, 0x55,
  0x09, 0x6e, 0x11, 0xcf, 0x07, 0xfa, 0xeb, 0x0f, 0xd8, 0x1a, 0xe7, 0x06,
  0x14, 0xec, 0xfe, 0xef, 0xd3, 0xf2, 0xeb, 0x12, 0xcc, 0x06, 0x0c, 0x1d,
  0xf9, 0x09, 0xfa, 0x17, 0xf4, 0x07, 0x01, 0x2b, 0x0d, 0x17, 0x35, 0x0a,
  0xff, 0xff, 0x0c, 0xf8, 0xee, 0xfc, 0x10, 0xfa, 0x24, 0x06, 0x2d, 0x0b,
  0x19, 0xfe, 0x2a, 0x18, 0x10, 0x0c, 0x05, 0xe1, 0xea, 0xe0, 0xd8, 0x13,
  0xf0, 0xe0, 0xcf, 0x16, 0x13, 0x2f, 0xf3, 0x1a, 0x1c, 0xe3, 0x27, 0x2c,
  0x15, 0x22, 0xdf, 0xd0, 0x07, 0x31, 0x0c, 0x21, 0xf5, 0x26, 0x2a, 0x09,
  0x11, 0x27, 0xed, 0x0a, 0x04, 0x27, 0x08, 0xf6, 0x2d, 0xfb, 0x22, 0xed,
  0xd1, 0x09, 0xd9, 0x2d, 0xff, 0x3e, 0x17, 0x12, 0xed, 0x1a, 0xdf, 0xb3,
  0x22, 0x14, 0x27, 0xe8, 0xeb, 0x1f, 0x00, 0xe3, 0xe7, 0x32, 0x04, 0xeb,
  0xfa, 0xd9, 0xeb, 0xc6, 0x1e, 0xfd, 0xce, 0x09, 0xe1, 0xf5, 0x01, 0xf7,
  0xe6, 0x0a, 0x23, 0x0b, 0xdf, 0x08, 0x0b, 0xd4, 0xe0, 0xe7, 0xd8, 0x17,
  0xe3, 0xfa, 0xed, 0x14, 0xfc, 0xea, 0x18, 0x1b, 0x09, 0xda, 0xf7, 0x10,
  0xf5, 0x2b, 0x09, 0xfe, 0x3b, 0x13, 0xf0, 0x0e, 0xcb, 0xef, 0xb6, 0x03,
  0x4e, 0xea, 0x27, 0x3a, 0x3a, 0xeb, 0xeb, 0xd2, 0x0f, 0xad, 0x25, 0xf0,
  0x19, 0xcf, 0xf7, 0xd4, 0x49, 0x13, 0x1f, 0x2d, 0xe3, 0xa4, 0x81, 0xc5,
  0x30, 0xba, 0xf2, 0xf2, 0x4c, 0x1b, 0x46, 0xce, 0xf8, 0x2a, 0x20, 0x36,
  0x18, 0x30, 0xbf, 0x19, 0x28, 0x1e, 0xd7, 0xd9, 0x26, 0x0b, 0x0e, 0xe6,
  0xf7, 0x08, 0x12, 0x34, 0x1e, 0x7c, 0x0c, 0x1e, 0x10, 0x0a, 0x2a, 0x2e,
  0x16, 0x43, 0xf5, 0xed, 0x12, 0xec, 0x3a, 0x04, 0x05, 0x21, 0x05, 0x0b,
  0xfa, 0x16, 0x17, 0x0d, 0x2b, 0x22, 0x95, 0x19, 0x1e, 0xed, 0xdb, 0xcd,
  0x03, 0xc1, 0xde, 0xf1, 0xb3, 0xfb, 0xe0, 0xf1, 0xc0, 0x0c, 0x4c, 0x99,
  0x06, 0x1d, 0xfe, 0xb2, 0xd2, 0x0f, 0xed, 0x30, 0x0b, 0xf6, 0xe2, 0xd3,
  0x29, 0x14, 0x0e, 0xfd, 0x58, 0x16, 0x16, 0x11, 0x10, 0x2c, 0x19, 0x10,
  0xfe, 0x1b, 0xe6, 0xef, 0xfa, 0xcd, 0x37, 0x01, 0x15, 0x5c, 0x2a, 0xed,
  0xd0, 0x14, 0x44, 0x27, 0x44, 0xd0, 0x01, 0x14, 0x01, 0x16, 0xff, 0xb6,
  0x4d, 0x02, 0x0e, 0x1d, 0xd8, 0x04, 0xda, 0x36, 0x3c, 0xb1, 0x77, 0xfd,
  0xdd, 0xca, 0xd6, 0xd4, 0xf4, 0x31, 0x04, 0x68, 0xc2, 0x11, 0xe0, 0x27,
  0x13, 0xf3, 0xb1, 0x1f, 0x00, 0xd7, 0x0c, 0xb1, 0x02, 0x2e, 0xef, 0x58,
  0xec, 0xe0, 0x42, 0xe3, 0x2b, 0xfa, 0xf7, 0x36, 0x21, 0xe5, 0x19, 0xca,
  0xe8, 0x1a, 0xc3, 0x5c, 0x2d, 0xc9, 0x7f, 0xeb, 0xf4, 0x22, 0xcd, 0x18,
  0x0a, 0x01, 0x1f, 0xed, 0x58, 0xfc, 0xf8, 0x19, 0x03, 0x45, 0x11, 0xe0,
  0x27, 0x05, 0x8e, 0xc1, 0xc5, 0xfc, 0x65, 0xbc, 0x55, 0xc7, 0x0c, 0x2c,
  0xea, 0x28, 0xf6, 0xb8, 0x07, 0xfa, 0xbf, 0xf5, 0x17, 0xed, 0x0a, 0xe5,
  0x34, 0xf8, 0xd6, 0x03, 0xf1, 0xf1, 0x36, 0xf7, 0x24, 0x06, 0x67, 0x51,
  0x34, 0x30, 0x3a, 0x1f, 0xd4, 0x15, 0xf7, 0x41, 0xde, 0xe2, 0xda, 0x23,
  0x30, 0xef, 0x68, 0xea, 0xcb, 0x20, 0xed, 0x57, 0xe8, 0xf7, 0x07, 0xe9,
  0xd9, 0xb6, 0x13, 0xc1, 0xf0, 0xf5, 0xc4, 0x0a, 0xd0, 0x00, 0xe6, 0x2d,
  0xf1, 0xd1, 0x16, 0xe5, 0x1e, 0x25, 0x72, 0xfe, 0xde, 0x20, 0xd8, 0xc2,
  0x25, 0x23, 0xfc, 0x11, 0xf9, 0xfa, 0x17, 0x05, 0x28, 0x17, 0xf4, 0xbf,
  0x5b, 0x16, 0xbb, 0xfa, 0x05, 0xd9, 0xf2, 0xd0, 0x12, 0xf4, 0x03, 0xf0,
  0x45, 0xf7, 0xee, 0xdb, 0xc7, 0xf2, 0x35, 0x24, 0x16, 0x32, 0x2c, 0xfe,
  0x1f, 0x2e, 0x07, 0x20, 0x20, 0x02, 0x45, 0x35, 0x47, 0xea, 0x00, 0xdc,
  0xfd, 0x1f, 0xfc, 0x1d, 0xa6, 0xd5, 0x47, 0xcc, 0x08, 0x08, 0x12, 0x16,
  0x1d, 0x36, 0x0b, 0x30, 0x4b, 0x4e, 0xc6, 0x00, 0x9c, 0x1a, 0xcf, 0x05,
  0xf1, 0xd6, 0x03, 0x44, 0x12, 0x05, 0x1c, 0x27, 0xfe, 0x30, 0xb0, 0x23,
  0x30, 0xf2, 0xbb, 0x35, 0x06, 0xe7, 0xe8, 0x28, 0x12, 0x50, 0xea, 0x0a,
  0x21, 0xb8, 0x0b, 0xfe, 0x06, 0xda, 0xdb, 0xe0, 0xc7, 0xc6, 0xec, 0xc6,
  0xfc, 0x08, 0x05, 0x2b, 0x1f, 0xf3, 0x02, 0x2f, 0x08, 0xc3, 0xe5, 0x37,
  0xe3, 0xad, 0x32, 0xe2, 0xc6, 0x0d, 0x31, 0x09, 0x13, 0xc3, 0x29, 0x52,
  0x9b, 0xe2, 0xe8, 0xfd, 0xec, 0xe8, 0x00, 0xfe, 0x16, 0xee, 0x42, 0x1f,
  0x0f, 0x17, 0xa1, 0x20, 0xc2, 0xdb, 0xf2, 0x1c, 0xee, 0xd6, 0x2c, 0x16,
  0x15, 0xde, 0xf3, 0x01, 0xdf, 0xd9, 0x23, 0x0a, 0x6d, 0xe9, 0xf2, 0xf1,
  0x1c, 0x3b, 0x1f, 0x1a, 0x5b, 0x0d, 0x1a, 0xe4, 0x24, 0x21, 0x13, 0xcb,
  0x0c, 0x2d, 0x45, 0xfd, 0x45, 0x16, 0x4f, 0xed, 0xf8, 0x0d, 0x04, 0x2a,
  0xe9, 0x22, 0xbf, 0x03, 0xe6, 0x16, 0x1f, 0x92, 0x7a, 0xc8, 0xe7, 0xc4,
  0xd4, 0x0f, 0x36, 0xbb, 0x03, 0xfc, 0xd3, 0xf6, 0xf5, 0x2a, 0x3b, 0xbf,
  0x2a, 0xf2, 0x9d, 0xb6, 0x25, 0xea, 0xfb, 0x07, 0x45, 0xe7, 0xff, 0x23,
  0x08, 0xde, 0x15, 0x13, 0x14, 0xea, 0xfb, 0x0f, 0x3b, 0x2f, 0x1f, 0xd2,
  0x22, 0x1d, 0xc9, 0xd6, 0xfe, 0x2a, 0x18, 0x0e, 0x0f, 0x49, 0x23, 0x18,
  0x61, 0x1a, 0x45, 0xe0, 0x0b, 0x36, 0x36, 0x0b, 0x05, 0x27, 0x24, 0xa7,
  0x75, 0xe7, 0xfb, 0x04, 0xa3, 0x01, 0xe0, 0xdb, 0x27, 0x43, 0x0b, 0xcc,
  0x33, 0x08, 0x69, 0x8e, 0x5a, 0xf4, 0xca, 0xd4, 0x9e, 0x17, 0xca, 0xdf,
  0x4d, 0x46, 0x29, 0x18, 0x59, 0x3c, 0x38, 0xf5, 0x0d, 0x42, 0x01, 0xe8,
  0xda, 0x05, 0xcb, 0xb2, 0x75, 0x0e, 0x4a, 0xf4, 0xeb, 0x2b, 0x30, 0x1f,
  0x12, 0xe8, 0xf7, 0x2a, 0xd3, 0x45, 0x6c, 0x47, 0x04, 0x0f, 0x20, 0x1d,
  0x2a, 0xee, 0x1e, 0xb3, 0x1f, 0xf4, 0xf6, 0x1b, 0x31, 0x4c, 0x17, 0x1f,
  0xcc, 0x0a, 0xfb, 0x27, 0xe7, 0x33, 0x28, 0xc2, 0x97, 0x3f, 0x1f, 0xf8,
  0xe5, 0x2f, 0xa5, 0xd4, 0xef, 0xee, 0x02, 0x30, 0x4c, 0x0a, 0x3a, 0xa5,
  0x1f, 0x39, 0xff, 0xfe, 0x9e, 0x10, 0x1f, 0xf2, 0xe3, 0x04, 0xfd, 0xf9,
  0x27, 0xff, 0x0c, 0xb4, 0x2f, 0x2f, 0x0e, 0x51, 0xcf, 0x0d, 0x40, 0xf1,
  0xf3, 0xf2, 0x2b, 0xff, 0x1f, 0x33, 0xf4, 0x1c, 0x09, 0xf4, 0xdc, 0x3c,
  0xc6, 0xfa, 0x3b, 0x20, 0xbd, 0x17, 0x00, 0x29, 0xf8, 0xbc, 0x0e, 0xe2,
  0x17, 0xf1, 0x33, 0x04, 0xea, 0xf5, 0xda, 0xe2, 0xc7, 0x02, 0x44, 0x04,
  0xcd, 0xc6, 0x23, 0xf5, 0x95, 0xfe, 0x20, 0xe5, 0xe1, 0x17, 0x15, 0x22,
  0xf8, 0x2a, 0xdb, 0xc8, 0xe4, 0x24, 0xc5, 0x81, 0xfb, 0xf2, 0xe5, 0x07,
  0xda, 0x03, 0xff, 0x8b, 0xbd, 0xc3, 0x2b, 0xfc, 0x2c, 0x10, 0xf6, 0xf4,
  0x65, 0xe1, 0x16, 0xde, 0xf1, 0xf2, 0xc3, 0xbb, 0xfd, 0x00, 0x22, 0x18,
  0x00, 0xf3, 0xca, 0xf5, 0xff, 0xcf, 0xf6, 0xf0, 0xa7, 0xd5, 0xdf, 0x00,
  0xd1, 0x10, 0xf5, 0x3c, 0x98, 0xb1, 0x21, 0x90, 0xdc, 0xd3, 0xf0, 0xc6,
  0xab, 0xd0, 0xa8, 0xa6, 0xc3, 0x36, 0xda, 0xdb, 0x06, 0x09, 0x00, 0x04,
  0x03, 0x1a, 0x22, 0x0c, 0x07, 0x24, 0xe8, 0xf8, 0xe6, 0xf6, 0xfb, 0x07,
  0xfc, 0x0c, 0xfc, 0x0a, 0xef, 0x0b, 0x16, 0x08, 0xed, 0x20, 0xec, 0x01,
  0x00, 0x0c, 0x00, 0x75, 0xf6, 0xfe, 0xe4, 0x05, 0x01, 0x0f, 0x05, 0x06,
  0xea, 0xfc, 0x11, 0xea, 0xe5, 0x06, 0x0d, 0x24, 0xf1, 0xfd, 0xfa, 0xfd,
  0xec, 0xee, 0x19, 0xee, 0xed, 0x05, 0x05, 0xf5, 0xfc, 0xe1, 0x27, 0xf1,
  0x19, 0x15, 0x0f, 0xf4, 0x02, 0x0d, 0x13, 0x06, 0xf2, 0x05, 0x0b, 0x11,
  0xf0, 0x09, 0x2d, 0x16, 0x02, 0xee, 0x0c, 0x0e, 0xe2, 0x0b, 0x06, 0x0b,
  0x15, 0x0a, 0xf7, 0x06, 0x07, 0xf8, 0xf0, 0x28, 0xfb, 0x00, 0xef, 0xfa,
  0x0f, 0xfd, 0x1a, 0xf4, 0x08, 0x0f, 0x09, 0x04, 0xfd, 0x1d, 0x03, 0xfb,
  0xee, 0xf2, 0x0c, 0x00, 0x25, 0x04, 0xe7, 0xde, 0x0c, 0x04, 0xf8, 0xe6,
  0x11, 0xfe, 0xfe, 0x05, 0xf7, 0xd8, 0x0f, 0xea, 0x05, 0x07, 0xff, 0xf4,
  0xf7, 0x09, 0x04, 0xf1, 0xf2, 0x01, 0x08, 0xfc, 0x1d, 0xf2, 0xfa, 0x25,
  0xfe, 0x07, 0x01, 0x01, 0xf4, 0x23, 0x07, 0x26, 0xf0, 0xf4, 0x11, 0x07,
  0x10, 0x19, 0x11, 0x17, 0xe6, 0x04, 0xe8, 0x01, 0xfb, 0x0d, 0x1f, 0x23,
  0x27, 0x06, 0x01, 0x00, 0xf3, 0xfd, 0x1b, 0x1f, 0xf6, 0xf6, 0xdd, 0xed,
  0xfa, 0x0e, 0x15, 0x1d, 0x22, 0xfc, 0xf3, 0xde, 0x00, 0xfa, 0x3a, 0x19,
  0x2d, 0xf7, 0xdf, 0xfb, 0xf9, 0x01, 0x11, 0xef, 0x3b, 0x02, 0x14, 0x0b,
  0xdf, 0xef, 0x01, 0x07, 0x06, 0xe0, 0xf2, 0x00, 0x0c, 0x26, 0x25, 0x19,
  0x3c, 0x0a, 0xfd, 0xf1, 0xf1, 0x0d, 0x12, 0xe5, 0x08, 0xe5, 0xe8, 0x28,
  0x10, 0x34, 0x22, 0x0c, 0x02, 0x0c, 0xdb, 0x07, 0x11, 0x0f, 0xf3, 0xf7,
  0xd8, 0xf6, 0xe9, 0xf5, 0x03, 0x08, 0x0c, 0x14, 0xeb, 0x07, 0x0f, 0x0d,
  0x0a, 0x28, 0x05, 0xd4, 0xe5, 0xd8, 0xa9, 0x27, 0xcc, 0x33, 0x11, 0x08,
  0xd0, 0x05, 0x0b, 0x2d, 0xf6, 0x01, 0xfe, 0xdd, 0x16, 0xfc, 0xf8, 0x23,
  0xba, 0x25, 0x29, 0xef, 0xf8, 0x31, 0x15, 0x0c, 0xfc, 0x09, 0x05, 0xfb,
  0x14, 0x14, 0x0d, 0x0b, 0x1b, 0x07, 0x1e, 0xf6, 0x0e, 0xd8, 0xf3, 0xfe,
  0x00, 0xfe, 0xff, 0x19, 0x0f, 0x2f, 0x0b, 0x24, 0x33, 0xfa, 0x2a, 0x09,
  0x15, 0xf1, 0x01, 0x14, 0x18, 0x10, 0xe6, 0xd6, 0xf0, 0x10, 0xe1, 0x14,
  0xf5, 0x14, 0xdf, 0xfe, 0xe6, 0x20, 0x05, 0x01, 0x10, 0x19, 0x12, 0x81,
  0x26, 0xfa, 0xe6, 0x0f, 0xc6, 0x2a, 0xe1, 0xc9, 0x05, 0x15, 0x13, 0x00,
  0xfc, 0x16, 0x27, 0xd7, 0x2a, 0x12, 0xe9, 0x03, 0xf8, 0xf4, 0x07, 0xcb,
  0xfd, 0xf4, 0x0e, 0xf7, 0xf1, 0xee, 0x1c, 0xfb, 0xf4, 0x11, 0xf3, 0x17,
  0x12, 0xf3, 0x16, 0xf2, 0x01, 0xee, 0x19, 0x06, 0xe3, 0x09, 0x15, 0xfa,
  0x06, 0x06, 0x13, 0x14, 0x44, 0xe9, 0xfc, 0xf3, 0x15, 0xf5, 0x13, 0xf9,
  0xb1, 0xe7, 0xe2, 0xd5, 0xee, 0x53, 0x03, 0x71, 0x03, 0x00, 0x47, 0xf2,
  0xd6, 0x19, 0x29, 0x02, 0x18, 0xd7, 0xcb, 0xd2, 0xfc, 0x23, 0x38, 0x0f,
  0x14, 0xf6, 0xda, 0xe9, 0xc7, 0xc5, 0xcc, 0x47, 0x3e, 0xfb, 0xfd, 0xdd,
  0x08, 0x06, 0x2c, 0xd3, 0xea, 0xf0, 0xb4, 0xf5, 0xd5, 0xf3, 0x10, 0x2f,
  0xfe, 0xec, 0x03, 0x17, 0xe9, 0xfa, 0xde, 0xff, 0xf7, 0x01, 0xca, 0x25,
  0xf2, 0x31, 0x1c, 0x0e, 0xdb, 0xff, 0xe5, 0xfe, 0x01, 0xd1, 0x14, 0xf1,
  0xe8, 0x3a, 0x17, 0x33, 0x11, 0xe4, 0x08, 0xe9, 0xe2, 0xbb, 0xee, 0xdc,
  0xe3, 0x06, 0x41, 0xe1, 0x51, 0xe0, 0xc6, 0x02, 0xe9, 0xcc, 0x00, 0xe3,
  0xec, 0x07, 0x06, 0x28, 0xdd, 0xe2, 0x37, 0x9e, 0x16, 0xda, 0xe0, 0xed,
  0x01, 0xdb, 0x11, 0xe6, 0x1e, 0xe3, 0xe7, 0x2d, 0x01, 0xce, 0x5c, 0xd1,
  0xea, 0x2b, 0xfe, 0x24, 0xc7, 0x05, 0x03, 0x22, 0xe0, 0x1b, 0xd9, 0x0b,
  0x30, 0xce, 0x34, 0xfe, 0xc7, 0x31, 0xf5, 0xef, 0xdd, 0x24, 0xf7, 0x0e,
  0xd0, 0xfa, 0xd3, 0xb8, 0x1b, 0xbc, 0xf3, 0xfc, 0xfd, 0xfd, 0xef, 0xd0,
  0xfd, 0x0e, 0xc3, 0x32, 0x01, 0x10, 0x0a, 0x16, 0xe3, 0xc1, 0xf6, 0xb0,
  0xc7, 0x0d, 0x13, 0x16, 0x0f, 0x0c, 0xce, 0x99, 0xfe, 0xf2, 0xff, 0x0d,
  0xf0, 0xad, 0xeb, 0x17, 0xc9, 0x2b, 0x0f, 0x06, 0x03, 0xed, 0xf8, 0xf4,
  0x16, 0x13, 0x0d, 0x03, 0x30, 0xd2, 0xf9, 0xf7, 0x13, 0x27, 0x33, 0x30,
  0x38, 0x46, 0xe7, 0x1c, 0xb4, 0x37, 0x07, 0x5f, 0xfb, 0x90, 0x35, 0xed,
  0xcd, 0x08, 0x04, 0x2e, 0x2e, 0x06, 0xc5, 0x00, 0xf1, 0x11, 0x2d, 0xfc,
  0xfa, 0xae, 0x2b, 0xf1, 0xcf, 0x2d, 0x0a, 0xf0, 0x31, 0xfa, 0xa0, 0x04,
  0xfe, 0x08, 0x0d, 0xd4, 0x1d, 0x27, 0xf9, 0x2e, 0xeb, 0x25, 0x0f, 0xbd,
  0xda, 0xec, 0x04, 0xfd, 0x3b, 0x47, 0x1e, 0x06, 0x23, 0x1d, 0xba, 0x36,
  0x2a, 0x35, 0xe8, 0xe8, 0x48, 0xf3, 0x0e, 0xff, 0x3a, 0x24, 0xff, 0xfa,
  0xec, 0x6a, 0xb0, 0x42, 0x3b, 0x10, 0xee, 0xeb, 0x01, 0x20, 0x19, 0x0f,
  0xd8, 0x35, 0xf3, 0x01, 0x18, 0x04, 0xc7, 0x09, 0xc0, 0xe8, 0xfc, 0x34,
  0x04, 0x11, 0xf2, 0x1c, 0x16, 0x05, 0x16, 0xab, 0xdb, 0x29, 0xd4, 0x1c,
  0xe7, 0xf8, 0x0a, 0xff, 0xf9, 0xe0, 0xe0, 0x19, 0xfc, 0xfd, 0xfd, 0x2f,
  0x37, 0xfd, 0x17, 0x0b, 0x15, 0xf1, 0xcd, 0xe4, 0x0b, 0xc2, 0xd3, 0x47,
  0xf6, 0xfe, 0xbf, 0x09, 0xc9, 0x0c, 0x13, 0x28, 0x46, 0x0f, 0x0a, 0x09,
  0xa5, 0x23, 0x3d, 0x6c, 0xe1, 0xe7, 0x81, 0xca, 0xda, 0x14, 0xae, 0xf9,
  0x42, 0xeb, 0xd5, 0xed, 0xeb, 0xd0, 0xb5, 0x24, 0x2b, 0xf9, 0x15, 0xb6,
  0x06, 0x40, 0xd8, 0xcd, 0xfa, 0xc5, 0x97, 0xc4, 0xf2, 0x0b, 0x46, 0xf9,
  0x3c, 0x28, 0x27, 0x4a, 0xf6, 0x5c, 0xd5, 0xd5, 0x3d, 0xeb, 0x07, 0x6a,
  0x0c, 0xc6, 0x20, 0xc7, 0x43, 0x38, 0x34, 0x0e, 0x08, 0x39, 0xf9, 0xff,
  0x01, 0x45, 0xe8, 0x2e, 0x2b, 0xd4, 0x14, 0xd5, 0xf4, 0xe5, 0xf3, 0xfc,
  0xfc, 0xe6, 0xb2, 0x1b, 0x09, 0x18, 0x2e, 0x19, 0x13, 0x15, 0xff, 0x05,
  0x81, 0xeb, 0x3e, 0x3a, 0x1e, 0x05, 0xfc, 0x04, 0x12, 0x22, 0x12, 0x3a,
  0x39, 0xda, 0xbd, 0xf0, 0xfb, 0xe5, 0x14, 0x59, 0x08, 0x44, 0xd8, 0xee,
  0x3f, 0x19, 0xe5, 0xeb, 0x41, 0xee, 0xe8, 0xca, 0xc5, 0xee, 0xe8, 0x08,
  0x10, 0x10, 0x05, 0xea, 0xff, 0xbe, 0xd3, 0xe5, 0xee, 0xce, 0xec, 0xc3,
  0x19, 0x0c, 0x19, 0xee, 0xf5, 0x06, 0xf3, 0x0d, 0x38, 0xfc, 0x13, 0x20,
  0xfc, 0xeb, 0xf6, 0x4c, 0x04, 0xf8, 0xd6, 0xd7, 0x07, 0xcc, 0xe7, 0x0b,
  0xef, 0x14, 0xc3, 0x35, 0xf4, 0x25, 0x0b, 0x6d, 0xdb, 0x3e, 0x15, 0x1f,
  0x37, 0x19, 0x18, 0x23, 0xc6, 0x16, 0x06, 0x2c, 0xf9, 0x1e, 0x21, 0x17,
  0x25, 0x0c, 0x41, 0x08, 0x26, 0x0e, 0x3d, 0x15, 0x10, 0x04, 0x09, 0x12,
  0x24, 0xe7, 0x37, 0xc0, 0x73, 0xf9, 0x0e, 0x1f, 0x1b, 0x29, 0x0a, 0xd5,
  0x19, 0xb9, 0xbf, 0xbb, 0x13, 0xe6, 0x60, 0xbb, 0xde, 0x0e, 0x0e, 0xc6,
  0x11, 0xf7, 0x00, 0xd1, 0xda, 0x41, 0xd3, 0x04, 0xbf, 0xfe, 0x27, 0x26,
  0xe0, 0x23, 0x0c, 0xb3, 0xec, 0xf0, 0xf5, 0x07, 0xf5, 0x0a, 0x23, 0xe3,
  0x1b, 0x23, 0x1d, 0xe4, 0x12, 0x04, 0xe5, 0xe8, 0x26, 0xfd, 0x01, 0xfb,
  0xc9, 0xf3, 0x27, 0xc0, 0xdd, 0xb7, 0x18, 0xff, 0xfd, 0xfd, 0x0b, 0xe6,
  0x28, 0x06, 0x5c, 0xc6, 0xab, 0xf2, 0xb4, 0x03, 0x97, 0x0b, 0x1c, 0x2b,
  0x3f, 0xf4, 0x05, 0xf6, 0xed, 0xeb, 0x02, 0xda, 0x90, 0xfc, 0x96, 0xef,
  0xf6, 0x17, 0x32, 0x0b, 0xd1, 0xff, 0xea, 0xbd, 0x53, 0xea, 0x32, 0xed,
  0xe8, 0xe7, 0x10, 0xf2, 0xfe, 0x1a, 0x02, 0x1d, 0x0b, 0x0d, 0x0f, 0xd3,
  0x22, 0xe5, 0xf9, 0x1e, 0xea, 0xec, 0x07, 0xd6, 0x0f, 0x2c, 0x1a, 0x18,
  0xdd, 0x05, 0xd5, 0x00, 0x12, 0xe5, 0x06, 0x0c, 0x28, 0xee, 0xeb, 0x0e,
  0x07, 0xed, 0xd0, 0x3a, 0xfb, 0x10, 0xfc, 0x11, 0xfb, 0xe8, 0xab, 0xea,
  0x8f, 0xf9, 0x06, 0x26, 0xed, 0x23, 0xec, 0x2b, 0xeb, 0x1c, 0x18, 0x01,
  0x08, 0xf9, 0xdd, 0x24, 0xb6, 0x3a, 0xe9, 0x39, 0xe5, 0x46, 0xcc, 0x1c,
  0x20, 0xe0, 0x1b, 0xc6, 0x34, 0x04, 0x2b, 0xf1, 0xbb, 0xef, 0xdd, 0xf6,
  0x1e, 0x40, 0x1d, 0xed, 0x02, 0x31, 0x21, 0xc5, 0xfd, 0xf6, 0x44, 0x29,
  0xc7, 0x1b, 0xfd, 0xe8, 0xee, 0x35, 0x31, 0xe3, 0x0e, 0xfe, 0x00, 0xd3,
  0x2e, 0xde, 0x12, 0xf4, 0xd5, 0xfc, 0x61, 0xeb, 0x3d, 0x1b, 0x01, 0xf9,
  0xc7, 0x26, 0x35, 0x1c, 0x20, 0xde, 0xb4, 0x2a, 0x05, 0x11, 0x2e, 0x02,
  0x4e, 0x0d, 0xba, 0xf2, 0x39, 0x18, 0x1b, 0x48, 0x26, 0x45, 0x12, 0x03,
  0x35, 0x0a, 0x10, 0x63, 0x1e, 0xde, 0x02, 0xec, 0x21, 0x20, 0xff, 0x0d,
  0xf9, 0x20, 0xed, 0x0a, 0xdf, 0x1a, 0x04, 0x24, 0x29, 0x0a, 0x1f, 0xf9,
  0x1a, 0x0a, 0x36, 0x08, 0x1f, 0x43, 0xee, 0x15, 0x27, 0x02, 0xed, 0x0b,
  0x15, 0x12, 0x13, 0xcb, 0xe5, 0x26, 0x1a, 0x12, 0x2c, 0x43, 0x0d, 0x1f,
  0xfd, 0x0a, 0x29, 0xff, 0x33, 0x02, 0xdb, 0xc6, 0x06, 0x06, 0x06, 0x1b,
  0x09, 0x24, 0x22, 0xf8, 0xfb, 0xe0, 0xf1, 0xe8, 0xf6, 0x10, 0x01, 0x12,
  0x44, 0x02, 0x1a, 0x0a, 0x19, 0xfa, 0x1c, 0xdf, 0x00, 0xfe, 0x29, 0x07,
  0x19, 0x19, 0xed, 0xe8, 0x17, 0x20, 0x0e, 0x37, 0x1a, 0x39, 0xdf, 0x36,
  0x39, 0x32, 0x0d, 0xf3, 0x3f, 0x2d, 0x11, 0xf6, 0x08, 0xef, 0x19, 0x08,
  0xd1, 0x16, 0xde, 0x35, 0x56, 0xe6, 0x24, 0xdf, 0x1b, 0xee, 0xfd, 0xf7,
  0x4a, 0x19, 0x11, 0x52, 0xd0, 0x4a, 0xf9, 0x25, 0x42, 0xf8, 0x2a, 0x13,
  0x30, 0xe2, 0x37, 0xe4, 0x28, 0x0c, 0x2b, 0x2a, 0x18, 0xf3, 0xf6, 0xf5,
  0x17, 0x18, 0x40, 0x1e, 0x1f, 0xf5, 0x20, 0x0d, 0x34, 0x14, 0x0b, 0x0b,
  0xf8, 0x8b, 0x09, 0xf0, 0xc7, 0x16, 0xeb, 0xe4, 0x1f, 0x05, 0x31, 0x0b,
  0x1a, 0x1e, 0xde, 0x21, 0xbc, 0x32, 0x0a, 0x12, 0x1c, 0xdc, 0xe2, 0x00,
  0x10, 0xf5, 0xf3, 0x1f, 0x18, 0xee, 0xe0, 0x36, 0xf0, 0xff, 0x3b, 0xe6,
  0xd8, 0x10, 0x20, 0x13, 0xdc, 0xfd, 0x18, 0x2b, 0x08, 0xf5, 0xd6, 0xdd,
  0xe7, 0x0c, 0x1d, 0xea, 0xe4, 0x54, 0xab, 0x25, 0xc7, 0xf6, 0x61, 0x36,
  0xe8, 0xe3, 0x2d, 0x85, 0x2d, 0x05, 0x04, 0x27, 0xbe, 0x27, 0x04, 0xe1,
  0x1f, 0xf8, 0xf8, 0x08, 0xfc, 0xed, 0x06, 0x25, 0xe0, 0xc0, 0x16, 0x23,
  0x20, 0x41, 0xfb, 0x0b, 0xf4, 0xc9, 0xdf, 0x12, 0x00, 0xee, 0x10, 0x0c,
  0x09, 0xd1, 0x14, 0xe6, 0xf5, 0xd7, 0xee, 0x13, 0xe6, 0x09, 0xfc, 0xee,
  0x33, 0xd9, 0xeb, 0xfa, 0xeb, 0xf4, 0x32, 0xec, 0xcc, 0x1f, 0x3f, 0x11,
  0xd4, 0x18, 0xfe, 0x58, 0xfe, 0x10, 0x13, 0xfb, 0xeb, 0x01, 0x1f, 0x0d,
  0xac, 0x2b, 0xc3, 0xf6, 0xcd, 0xfc, 0x16, 0x21, 0xd8, 0xf1, 0x44, 0x06,
  0x28, 0x31, 0x13, 0x0e, 0x0b, 0xf4, 0x08, 0xa7, 0xfc, 0xda, 0xec, 0xf6,
  0x23, 0xf0, 0xf8, 0x28, 0x19, 0x1a, 0x29, 0xe8, 0x37, 0xd8, 0xf2, 0xdd,
  0xfa, 0xc7, 0x1b, 0x04, 0xe6, 0x2f, 0x3c, 0x17, 0xf7, 0xe1, 0xf4, 0xe1,
  0x02, 0xf7, 0x22, 0xec, 0x10, 0x33, 0x1a, 0xdb, 0xff, 0x2a, 0x07, 0xe4,
  0x2f, 0x16, 0x41, 0xe4, 0xdb, 0x02, 0x20, 0xeb, 0x47, 0x33, 0xde, 0xfb,
  0x0b, 0x2a, 0x1d, 0xe9, 0xf5, 0x06, 0x02, 0xee, 0xf3, 0xdc, 0x16, 0xef,
  0xee, 0x38, 0x19, 0xe6, 0xe1, 0x0f, 0xfd, 0xe3, 0x06, 0xf9, 0x04, 0x26,
  0xee, 0x1b, 0x16, 0x1b, 0xf6, 0x08, 0x1e, 0xfb, 0x9d, 0xdd, 0xfd, 0xdb,
  0xf8, 0xb6, 0x00, 0x2e, 0xf7, 0x1d, 0x02, 0x81, 0xb7, 0x05, 0xe1, 0xf7,
  0xe7, 0xf3, 0xe7, 0xeb, 0x53, 0x45, 0x0d, 0x5d, 0x0d, 0xf0, 0x27, 0xea,
  0x25, 0x22, 0xf0, 0x18, 0x41, 0x08, 0x01, 0x20, 0x0d, 0x2e, 0x3a, 0xe1,
  0x32, 0xdf, 0xee, 0x2f, 0x17, 0xf6, 0x0d, 0xe3, 0x3a, 0xdc, 0xcb, 0xea,
  0x1c, 0x13, 0x36, 0x01, 0xe1, 0x02, 0x0e, 0x0f, 0xde, 0xf7, 0x43, 0x16,
  0x55, 0xfa, 0xed, 0xfc, 0x00, 0x02, 0x1f, 0xf3, 0xda, 0x13, 0xff, 0xfb,
  0xe9, 0x42, 0x6a, 0x46, 0x3f, 0x10, 0x1a, 0x03, 0x12, 0xec, 0x09, 0x1f,
  0x0b, 0x05, 0x32, 0x01, 0x17, 0x0c, 0x28, 0x2f, 0xe6, 0x04, 0xf1, 0xf5,
  0x1f, 0x32, 0x36, 0x05, 0x15, 0xd8, 0xe6, 0xd6, 0x34, 0x17, 0xdc, 0x19,
  0xf8, 0xf8, 0xda, 0x1c, 0xd8, 0x27, 0x1c, 0x11, 0x18, 0xcb, 0x11, 0xe6,
  0x0e, 0xed, 0x27, 0xcb, 0x1d, 0x02, 0xf6, 0x2a, 0xfc, 0x3c, 0x49, 0x15,
  0x3e, 0xfb, 0xd5, 0xf1, 0xf3, 0x12, 0xec, 0x24, 0x2f, 0x0a, 0xc3, 0xef,
  0xff, 0xf6, 0xfc, 0x09, 0xf7, 0xf4, 0x03, 0xf0, 0x17, 0x3e, 0xf8, 0x0f,
  0xda, 0x1f, 0xe2, 0xf4, 0xf7, 0x83, 0xf1, 0x0e, 0xd7, 0x3f, 0xed, 0x06,
  0xd1, 0xfc, 0xbd, 0x4b, 0xfa, 0xf8, 0xc6, 0x61, 0xc6, 0x10, 0x13, 0x1e,
  0x5e, 0xda, 0xe1, 0x24, 0x0e, 0xcf, 0xca, 0x04, 0xd7, 0xfd, 0xe8, 0x54,
  0x9f, 0xf9, 0x0d, 0x12, 0x3f, 0xe8, 0x2e, 0x52, 0xd4, 0xf5, 0xbf, 0x21,
  0xfc, 0x0a, 0xf8, 0x2c, 0xfe, 0xf8, 0x05, 0xdb, 0x08, 0x2b, 0x02, 0x7f,
  0x0b, 0xe8, 0xdb, 0xf5, 0xef, 0x09, 0x15, 0x1d, 0x02, 0xd6, 0xc2, 0xee,
  0xfe, 0x0a, 0x04, 0xef, 0x2f, 0x22, 0xdc, 0xeb, 0xe6, 0xe3, 0x24, 0x0d,
  0x05, 0xd8, 0x03, 0x00, 0xef, 0xc8, 0xf5, 0xea, 0x08, 0xd6, 0xe1, 0x0f,
  0xf6, 0xd1, 0x03, 0x4d, 0xda, 0xf6, 0xf5, 0xfb, 0x5d, 0xbe, 0x2f, 0x46,
  0x25, 0x02, 0xe7, 0x18, 0xd0, 0xf8, 0xec, 0x44, 0xeb, 0xee, 0x24, 0xe2,
  0x5a, 0xe0, 0x20, 0x1b, 0xf3, 0xdb, 0xdf, 0xf6, 0x21, 0x1c, 0x18, 0x31,
  0xef, 0x32, 0x01, 0xfe, 0x30, 0x00, 0x09, 0x3f, 0xf3, 0x20, 0x24, 0x16,
  0xf8, 0xf8, 0x35, 0xe1, 0x29, 0xee, 0x09, 0x2c, 0x5d, 0x03, 0xd9, 0xe2,
  0x5a, 0x18, 0xfd, 0x06, 0xfc, 0x08, 0x18, 0x58, 0x10, 0x14, 0x0a, 0xfb,
  0x6d, 0xce, 0x22, 0x35, 0x0d, 0x0e, 0xdf, 0xf9, 0x0a, 0x08, 0xf3, 0x10,
  0x04, 0xdb, 0xf4, 0x08, 0x21, 0xff, 0x40, 0x3b, 0x1e, 0xb8, 0xc9, 0x12,
  0xec, 0x1a, 0xf5, 0x23, 0xc5, 0xf8, 0x23, 0x14, 0x14, 0xf2, 0x05, 0x33,
  0x0b, 0x2d, 0xf4, 0x32, 0x2d, 0x1c, 0xe9, 0x06, 0xfe, 0xec, 0xf7, 0x0c,
  0x18, 0x08, 0x14, 0x1b, 0xeb, 0xf8, 0x06, 0xf0, 0xf9, 0xec, 0x07, 0x02,
  0x08, 0x2c, 0x2d, 0x0d, 0xda, 0x18, 0x01, 0x08, 0xdd, 0x10, 0xfb, 0xd6,
  0x10, 0xfc, 0xee, 0x1b, 0x02, 0x3c, 0xfe, 0x21, 0x23, 0x03, 0x11, 0x36,
  0xfe, 0xf8, 0xe7, 0x23, 0xd4, 0x05, 0x2a, 0x4c, 0xfe, 0xd3, 0xd8, 0xe3,
  0x10, 0xe1, 0xe0, 0xfc, 0x10, 0x29, 0xd8, 0xf9, 0xd0, 0xd9, 0xfc, 0xf1,
  0xf9, 0x26, 0xc4, 0xf4, 0x37, 0x9f, 0xca, 0x03, 0x09, 0xd7, 0x93, 0xc0,
  0x21, 0x14, 0xbf, 0x0c, 0xee, 0xeb, 0x07, 0x81, 0xeb, 0xde, 0xbf, 0xee,
  0xd4, 0x17, 0xfc, 0x9a, 0xc6, 0xe7, 0xf8, 0xd0, 0xe0, 0x19, 0x9d, 0xe0,
  0xd8, 0xc4, 0xd4, 0xd7, 0xcf, 0xf4, 0x90, 0x33, 0x9f, 0xcd, 0xe6, 0x09,
  0xc7, 0x28, 0xd6, 0xf5, 0xeb, 0xb8, 0x09, 0xe9, 0xfc, 0xdf, 0xc9, 0xea,
  0xf9, 0x0b, 0x30, 0x31, 0xfb, 0xe1, 0x1e, 0x17, 0x22, 0x2f, 0x1d, 0x0d,
  0x2d, 0x10, 0x23, 0xc4, 0xc8, 0xf1, 0x21, 0x22, 0x09, 0x19, 0x41, 0xcb,
  0x37, 0xeb, 0xe3, 0x30, 0x24, 0xed, 0x01, 0xb7, 0x27, 0x2e, 0xeb, 0x12,
  0x4c, 0xd1, 0x22, 0xda, 0x54, 0xfc, 0x04, 0xfe, 0x0b, 0x2d, 0x2a, 0x93,
  0x9c, 0x13, 0x16, 0x4e, 0x20, 0xc0, 0xd5, 0xeb, 0x56, 0x12, 0xea, 0x1d,
  0x10, 0xe4, 0xd2, 0xe3, 0xf2, 0xec, 0xe5, 0x51, 0xca, 0x1c, 0xed, 0x0b,
  0x4d, 0x03, 0x20, 0x1c, 0xf1, 0x2f, 0xfa, 0xb2, 0xf0, 0x09, 0xf4, 0xeb,
  0xd7, 0xdf, 0x4e, 0xff, 0xb2, 0xf6, 0x17, 0xf3, 0x0c, 0x34, 0x25, 0xfc,
  0xd7, 0xd9, 0xdb, 0x12, 0xff, 0x10, 0x21, 0x0a, 0xde, 0x16, 0xff, 0x15,
  0x21, 0x0f, 0xea, 0x35, 0x22, 0xb4, 0x0e, 0xe0, 0x0c, 0x5f, 0x16, 0x27,
  0x21, 0xf0, 0xfc, 0xde, 0x20, 0xb0, 0x39, 0xf1, 0x11, 0xe6, 0x19, 0xe3,
  0xc2, 0x6a, 0xc7, 0x30, 0x15, 0xfd, 0x46, 0x12, 0x10, 0xc7, 0xfe, 0xc9,
  0x3b, 0x18, 0xf1, 0x27, 0x11, 0x54, 0xa7, 0x18, 0x23, 0xeb, 0x17, 0x12,
  0x0c, 0xd1, 0x37, 0xf8, 0x25, 0x0c, 0xfd, 0xdf, 0x29, 0x1a, 0x5f, 0x2f,
  0xf4, 0x18, 0xef, 0xb8, 0xe5, 0x2b, 0x23, 0x23, 0xf1, 0xf4, 0x1b, 0x10,
  0x26, 0xea, 0x12, 0x29, 0x1e, 0x09, 0xc5, 0xd5, 0x02, 0x10, 0xe1, 0x1c,
  0xeb, 0xd4, 0xe9, 0x27, 0x0e, 0x17, 0x50, 0x12, 0x4f, 0xd2, 0x1c, 0x32,
  0x31, 0xf3, 0xdf, 0xf4, 0x11, 0xee, 0x06, 0x34, 0xf4, 0x12, 0xec, 0xf7,
  0x3e, 0xf2, 0x0e, 0x25, 0x27, 0xe5, 0xf5, 0xed, 0x06, 0xdd, 0xe5, 0x40,
  0xc7, 0x25, 0xf5, 0x34, 0x21, 0x26, 0x17, 0x00, 0xff, 0x06, 0x02, 0x02,
  0xce, 0xd8, 0xf4, 0x0a, 0x09, 0x06, 0x26, 0xfc, 0x24, 0xff, 0xf8, 0xc6,
  0xe5, 0xe1, 0x08, 0x31, 0x1a, 0xf3, 0xa1, 0x47, 0xf7, 0xfd, 0xf6, 0x1d,
  0x57, 0xe3, 0xf5, 0xe3, 0x04, 0xd8, 0x02, 0x1d, 0x31, 0x01, 0x10, 0x41,
  0xea, 0x0f, 0x31, 0x05, 0x4d, 0xc9, 0x05, 0x31, 0xce, 0xdf, 0x3c, 0x09,
  0xd9, 0xd6, 0x0c, 0x03, 0xf4, 0xe6, 0x02, 0xd3, 0x22, 0x04, 0x00, 0x1a,
  0x1c, 0xf8, 0x46, 0xd5, 0xd3, 0xde, 0xb6, 0xce, 0xee, 0xe3, 0x03, 0x16,
  0x28, 0x06, 0xdd, 0xbe, 0xeb, 0xe9, 0xa6, 0x2c, 0xea, 0x0a, 0xf9, 0xd0,
  0x09, 0xbf, 0xd7, 0x1c, 0x11, 0xe9, 0xed, 0x08, 0xdd, 0x18, 0xd2, 0xd2,
  0x18, 0x1f, 0x20, 0x06, 0x00, 0x24, 0xd8, 0x34, 0x24, 0x06, 0x0a, 0x10,
  0x10, 0x16, 0xee, 0xd2, 0xf4, 0x1a, 0x0f, 0x27, 0x0f, 0x17, 0xcd, 0x14,
  0x68, 0xf4, 0x1c, 0x12, 0x07, 0x01, 0x0e, 0xed, 0xcd, 0x0c, 0x1b, 0xf2,
  0x09, 0x11, 0xe3, 0xee, 0x40, 0xf1, 0x2a, 0x26, 0x20, 0x02, 0x29, 0xd1,
  0x24, 0xe2, 0x16, 0x07, 0x1b, 0xe9, 0xee, 0xf4, 0xff, 0xe4, 0x0a, 0xf7,
  0xfc, 0xff, 0xf0, 0x05, 0xe2, 0x12, 0xf1, 0x06, 0x16, 0x08, 0x08, 0xe5,
  0x02, 0xe9, 0xf2, 0xe4, 0xe3, 0x17, 0x11, 0x2a, 0x23, 0x1a, 0xfd, 0x2b,
  0x19, 0x1f, 0xb4, 0xec, 0x49, 0x18, 0xf2, 0x03, 0xf6, 0xfc, 0xf4, 0xcf,
  0xfc, 0x03, 0x0f, 0x1b, 0x00, 0x1e, 0x31, 0x04, 0x1e, 0xe8, 0x20, 0xf9,
  0x13, 0x2c, 0x36, 0xe2, 0xcf, 0x12, 0x22, 0x43, 0xeb, 0xff, 0x07, 0x16,
  0x0f, 0x1b, 0x09, 0xf0, 0xe8, 0xe2, 0x0d, 0xdf, 0xed, 0xed, 0x09, 0xfc,
  0x09, 0xf9, 0x0a, 0x04, 0x06, 0xe8, 0x39, 0x21, 0x1d, 0xf5, 0xcf, 0x0f,
  0xf4, 0xf1, 0x0f, 0x48, 0xf8, 0x39, 0xfc, 0x26, 0x7f, 0xd6, 0x07, 0x24,
  0x2b, 0xf8, 0x29, 0xff, 0x14, 0xee, 0x0d, 0x59, 0xd7, 0x54, 0xfb, 0x10,
  0x5c, 0xe5, 0xee, 0xfe, 0x2d, 0xd5, 0x19, 0xb5, 0x22, 0xf7, 0x21, 0x44,
  0xf6, 0x35, 0xf5, 0xfe, 0x43, 0x00, 0x0a, 0x1f, 0x15, 0x0c, 0x13, 0xe1,
  0xe8, 0x07, 0xef, 0x05, 0xea, 0x21, 0xca, 0x2c, 0x08, 0x06, 0x2b, 0xf0,
  0x0f, 0xf0, 0xed, 0xfc, 0x03, 0xf7, 0xec, 0x0c, 0x1e, 0xf8, 0xd6, 0x46,
  0x18, 0x03, 0x07, 0x2f, 0x1a, 0x1a, 0xd4, 0x1d, 0xf2, 0x06, 0xbf, 0x7d,
  0xe7, 0xed, 0xea, 0xff, 0x5a, 0x0a, 0x25, 0x3f, 0x10, 0xfe, 0xec, 0x21,
  0xd5, 0xe4, 0xdc, 0x3c, 0xba, 0x37, 0xf7, 0xf9, 0x3b, 0xf1, 0x12, 0x1e,
  0xff, 0x17, 0x10, 0x0c, 0x09, 0x08, 0x1d, 0xfb, 0x02, 0x56, 0xea, 0x05,
  0x11, 0x07, 0x40, 0xe3, 0xfd, 0xf0, 0xfa, 0x13, 0x04, 0xe0, 0xe9, 0xe2,
  0x11, 0x01, 0x01, 0x14, 0x0d, 0x01, 0xf0, 0xe6, 0x10, 0xd2, 0x09, 0xf8,
  0x0f, 0xea, 0x09, 0xd4, 0x1b, 0x24, 0x09, 0xfc, 0x19, 0xe6, 0xf0, 0xe5,
  0x00, 0x17, 0xfd, 0xed, 0x01, 0xf6, 0x0c, 0x27, 0xdf, 0xf3, 0xd4, 0xdf,
  0xea, 0x27, 0xcb, 0x27, 0xf7, 0x02, 0xeb, 0xf3, 0x03, 0xe4, 0x1f, 0x16,
  0xf2, 0xf7, 0xc8, 0xfd, 0x40, 0x27, 0xd8, 0x42, 0xea, 0x12, 0xf9, 0x04,
  0xc5, 0xff, 0xe6, 0x30, 0xdb, 0xd2, 0xe4, 0xdd, 0xf7, 0x0a, 0x01, 0x24,
  0xe3, 0xe8, 0xe0, 0x18, 0x22, 0x07, 0x03, 0xd3, 0x09, 0x0a, 0x38, 0x0e,
  0xbb, 0x06, 0xe2, 0x15, 0xf0, 0xde, 0x25, 0x00, 0x17, 0x29, 0x06, 0x40,
  0xf9, 0xf1, 0x19, 0xfc, 0xd4, 0xf4, 0xd5, 0x1e, 0x05, 0xf4, 0x07, 0xf7,
  0xdd, 0x41, 0x2b, 0x43, 0xfc, 0x49, 0xf1, 0x29, 0xcc, 0xac, 0x04, 0x11,
  0x05, 0xea, 0x9c, 0xe6, 0xb4, 0xaa, 0x1f, 0xda, 0xae, 0x21, 0xe2, 0xf6,
  0x3c, 0x5b, 0xb0, 0x34, 0x2f, 0xad, 0xd5, 0xd1, 0x26, 0xea, 0xb3, 0xd2,
  0xc3, 0xe3, 0x4a, 0x33, 0x9f, 0xdb, 0xb2, 0x30, 0xa6, 0x9d, 0xcc, 0xb6,
  0xc1, 0xa7, 0x13, 0xec, 0xdf, 0xb6, 0xd2, 0x44, 0x2f, 0x36, 0x94, 0xd6,
  0x0a, 0x4d, 0xef, 0x0b, 0x9f, 0xab, 0x25, 0x49, 0x26, 0x41, 0x2a, 0x03,
  0xaf, 0x15, 0x31, 0xd9, 0xfe, 0xd2, 0x10, 0xd1, 0xa9, 0xce, 0x30, 0x9f,
  0x11, 0xa8, 0xd5, 0x28, 0xa9, 0xec, 0xbb, 0xb6, 0x06, 0x1e, 0x9f, 0x38,
  0x43, 0x4f, 0xd1, 0x9d, 0xb6, 0x46, 0xe6, 0x02, 0x39, 0xbd, 0xe1, 0xc3,
  0xa2, 0x17, 0xdc, 0xf3, 0x22, 0xb3, 0xb7, 0x3b, 0xa5, 0x1f, 0x2c, 0x27,
  0xcd, 0x3a, 0x29, 0x4a, 0xec, 0x47, 0xaf, 0x1d, 0x1f, 0xf2, 0xf6, 0xa8,
  0xc3, 0x17, 0xac, 0xe8, 0x2d, 0xbe, 0xbc, 0xf6, 0x3a, 0xd9, 0xd7, 0x17,
  0xc1, 0x16, 0x33, 0x9c, 0x25, 0x8a, 0x96, 0xed, 0x28, 0x2b, 0x3d, 0x42,
  0xd7, 0x3e, 0x81, 0xac, 0xe4, 0x46, 0xd5, 0xae, 0xac, 0x33, 0xec, 0x49,
  0xa7, 0x34, 0x0c, 0xb4, 0xb8, 0xba, 0xbd, 0xb3, 0x3b, 0xa1, 0xe4, 0x1f,
  0x20, 0x45, 0xdb, 0x30, 0xca, 0x10, 0x43, 0xaf, 0xc0, 0x4a, 0x98, 0xb3,
  0xa4, 0xdb, 0xb2, 0xb7, 0xe6, 0x2b, 0xfd, 0xd7, 0xd1, 0xb3, 0xfa, 0x09,
  0x36, 0xcc, 0x0d, 0x20, 0x46, 0x4e, 0x9e, 0xc9, 0xe4, 0xe0, 0x49, 0xfa,
  0xe1, 0x9f, 0x1d, 0xc0, 0x1d, 0xab, 0x0d, 0xe9, 0x25, 0x48, 0x1b, 0xa7,
  0xf1, 0x3a, 0x0e, 0x45, 0x88, 0xa1, 0x07, 0xdf, 0x3b, 0x44, 0xe6, 0xe7,
  0x03, 0x3c, 0xff, 0x42, 0xad, 0xa9, 0x38, 0x45, 0x32, 0x52, 0x42, 0xb1,
  0xf6, 0xe1, 0x32, 0x3e, 0x17, 0xc8, 0x25, 0x98, 0x03, 0x9b, 0xf5, 0x0d,
  0xd8, 0xf7, 0x1f, 0xb1, 0x17, 0xe5, 0xe3, 0x10, 0x1c, 0x2b, 0xd7, 0x00,
  0xac, 0xc5, 0x46, 0x13, 0xd5, 0x2a, 0xd0, 0x43, 0x4f, 0xd7, 0x44, 0x1f,
  0x51, 0xca, 0xc6, 0xe8, 0xd1, 0x1e, 0x0f, 0xee, 0xd9, 0xdb, 0x4c, 0x08,
  0xd1, 0x2b, 0xc1, 0xfb, 0xf3, 0xda, 0xb4, 0x03, 0x15, 0x27, 0x3b, 0x2e,
  0xd5, 0xc5, 0x9f, 0xaa, 0x01, 0xd0, 0x0e, 0xd8, 0x32, 0xc9, 0x3a, 0x9c,
  0x0c, 0xbb, 0x0f, 0x0e, 0xc9, 0xda, 0xb9, 0x22, 0x8d, 0xd7, 0x2c, 0xce,
  0x3f, 0x3e, 0xe5, 0x9e, 0x07, 0xdf, 0x24, 0xe7, 0x22, 0xe1, 0xa9, 0xec,
  0xc2, 0x3d, 0xd0, 0xd7, 0xf6, 0xc2, 0xa7, 0x0c, 0xe3, 0xbf, 0xe4, 0xe7,
  0xee, 0x04, 0xc3, 0x3f, 0xed, 0xb7, 0x2d, 0x01, 0x06, 0x0f, 0x30, 0xc7,
  0xf7, 0x17, 0x15, 0xe0, 0x0c, 0xfe, 0xc7, 0x47, 0x43, 0x07, 0xd9, 0xf9,
  0xf5, 0xa9, 0xd9, 0xdc, 0x31, 0xa5, 0xcd, 0xbf, 0xa0, 0x0c, 0x09, 0x06,
  0xd2, 0xb6, 0x4b, 0xee, 0xfb, 0x1c, 0xff, 0xbc, 0x31, 0x21, 0x09, 0xcc,
  0xaf, 0x0e, 0x15, 0xed, 0xda, 0x39, 0xd5, 0x05, 0xb4, 0xc0, 0xc5, 0x9c,
  0xba, 0xa9, 0xd4, 0xc6, 0xb9, 0xb3, 0xac, 0x05, 0x0c, 0xc6, 0xe2, 0xdc,
  0xe7, 0x07, 0xe5, 0xe2, 0xf9, 0xeb, 0xc3, 0x0d, 0x30, 0xf5, 0xed, 0xc1,
  0xf4, 0xf5, 0xd2, 0xd0, 0xcd, 0xd2, 0xdd, 0x00, 0x1e, 0xd3, 0x9e, 0xee,
  0x16, 0xe8, 0xdd, 0xce, 0xd3, 0x26, 0x28, 0x24, 0xde, 0xd0, 0x2e, 0xd7,
  0xc7, 0x25, 0xfc, 0xcf, 0xde, 0xc9, 0xaf, 0xeb, 0x1c, 0x24, 0xf8, 0xa7,
  0xc3, 0xf4, 0xec, 0xf5, 0x2a, 0xf5, 0x1d, 0x04, 0xbc, 0xa3, 0xd5, 0xae,
  0x2c, 0x20, 0xe9, 0xf3, 0x19, 0xfb, 0xc2, 0xc5, 0xd1, 0xdf, 0x3f, 0x98,
  0xe6, 0xe6, 0x1c, 0x1b, 0x37, 0xf2, 0xab, 0xa0, 0x1f, 0x19, 0xd0, 0xdf,
  0xc7, 0x17, 0xfd, 0xe4, 0x18, 0x21, 0xae, 0xd3, 0xcc, 0xc5, 0xc4, 0xa6,
  0xc6, 0xb7, 0x05, 0x48, 0xf3, 0xf9, 0xb4, 0xdd, 0x07, 0xe8, 0x07, 0xdb,
  0xeb, 0x31, 0xd1, 0x2d, 0x0b, 0xf6, 0x32, 0xcd, 0xe5, 0xf8, 0xd9, 0x08,
  0x15, 0x2e, 0xec, 0xcf, 0x1c, 0xdd, 0xc6, 0xce, 0x1e, 0xcb, 0xae, 0xd0,
  0xbf, 0xe6, 0xc5, 0xbf, 0x1c, 0xe6, 0x19, 0xcb, 0x2f, 0x35, 0x22, 0xde,
  0xbc, 0xea, 0xe5, 0xd1, 0x07, 0xde, 0xe4, 0xc6, 0xae, 0x11, 0xef, 0x26,
  0xcc, 0xe6, 0x13, 0xb3, 0xd3, 0xe5, 0xcb, 0xff, 0xbc, 0xfa, 0xf9, 0xd5,
  0xf0, 0x36, 0x01, 0x2a, 0x1a, 0x28, 0xda, 0xc6, 0xf8, 0xaf, 0x16, 0xf3,
  0xf9, 0xd8, 0x40, 0xde, 0xe1, 0x08, 0xc6, 0x21, 0x11, 0x23, 0x9c, 0x11,
  0x07, 0x1b, 0x81, 0xbb, 0xe2, 0x32, 0x05, 0xda, 0xd7, 0x18, 0x01, 0xca,
  0xec, 0x97, 0xef, 0xc6, 0xc0, 0xe0, 0xf0, 0xdf, 0x27, 0x27, 0xb4, 0x3c,
  0xc0, 0xc5, 0x13, 0x11, 0x2a, 0xd2, 0xce, 0xd9, 0x2f, 0xef, 0xea, 0x3e,
  0xe4, 0xb8, 0xef, 0x34, 0x17, 0x00, 0x39, 0x1f, 0xd1, 0xe6, 0xde, 0xba,
  0xe3, 0xa5, 0x32, 0xc4, 0xce, 0xcd, 0xb4, 0xfb, 0x3a, 0x18, 0x2d, 0x02,
  0xca, 0x0b, 0x24, 0x45, 0xd3, 0xda, 0xd4, 0xe2, 0xab, 0x19, 0xea, 0xf5,
  0x0e, 0xdd, 0x2b, 0x17, 0x2d, 0x12, 0xed, 0xc9, 0xfe, 0xcd, 0x1c, 0xe6,
  0x33, 0xfb, 0xc1, 0xc1, 0xfb, 0x09, 0x3a, 0x10, 0xcd, 0x0b, 0xd6, 0xcd,
  0xd3, 0xa8, 0x1e, 0x00, 0x03, 0x3a, 0x28, 0xfc, 0x41, 0xf9, 0x0a, 0xb1,
  0xbf, 0xbb, 0x13, 0x26, 0x0e, 0xc3, 0xad, 0x0e, 0x06, 0x0a, 0x25, 0x33,
  0x03, 0xd8, 0x18, 0xf9, 0x04, 0x12, 0xd5, 0x36, 0xb8, 0xe4, 0xb3, 0xfa,
  0x37, 0xf6, 0x07, 0xc8, 0x40, 0xd1, 0xf4, 0xb9, 0xc6, 0xcd, 0xff, 0x1c,
  0xe7, 0xd8, 0xd1, 0xce, 0x2c, 0xca, 0xc5, 0xc7, 0xf5, 0xdf, 0xb3, 0xd6,
  0x04, 0xb3, 0x27, 0x0f, 0xcf, 0xc0, 0x14, 0xea, 0x14, 0xc6, 0xd4, 0x2c,
  0x0a, 0xb4, 0xee, 0xc9, 0xc8, 0xc8, 0xf5, 0x14, 0xfd, 0xfe, 0x09, 0xf6,
  0x03, 0x0c, 0xf7, 0x26, 0xdd, 0xf7, 0x09, 0x17, 0x16, 0x1d, 0xfc, 0xff,
  0xdc, 0x21, 0x02, 0xfe, 0xeb, 0x18, 0xae, 0x19, 0x01, 0x24, 0x05, 0xf6,
  0xfe, 0xe0, 0xe9, 0xb5, 0xed, 0x06, 0x23, 0x06, 0xe4, 0x2e, 0xcc, 0x35,
  0x0b, 0x1a, 0x2b, 0x02, 0x21, 0xf3, 0xce, 0x81, 0x22, 0x13, 0x1e, 0x17,
  0x1b, 0x11, 0x02, 0x19, 0x2c, 0xec, 0x00, 0xfb, 0x33, 0x12, 0xf7, 0xe5,
  0xe1, 0xf7, 0x09, 0x00, 0x1c, 0xbc, 0x30, 0xd0, 0xe1, 0xe5, 0xe9, 0xf4,
  0xf4, 0xe9, 0x1c, 0x11, 0xd9, 0x0a, 0xf0, 0xf8, 0xeb, 0x10, 0xf3, 0x24,
  0x13, 0xf5, 0xf7, 0x0c, 0xee, 0xf8, 0xe6, 0x63, 0xd6, 0xee, 0xeb, 0x19,
  0xce, 0x0a, 0xad, 0x32, 0x1e, 0x21, 0xfb, 0xfd, 0xeb, 0xfe, 0xd1, 0x1d,
  0x04, 0xff, 0x0a, 0x35, 0xb4, 0x0d, 0xd4, 0x22, 0xfa, 0xeb, 0x0f, 0x31,
  0x05, 0xd2, 0x00, 0x0d, 0x06, 0x01, 0x30, 0x08, 0x02, 0x02, 0x33, 0x1e,
  0xf5, 0xf9, 0xea, 0x03, 0xfd, 0xff, 0x22, 0xfe, 0xec, 0x0d, 0xfb, 0x18,
  0x0c, 0xdb, 0x2d, 0xfb, 0xe2, 0xf4, 0xd5, 0xc9, 0x15, 0x03, 0x3e, 0xfa,
  0xf2, 0xd9, 0xf0, 0xf5, 0x2e, 0x0a, 0x17, 0x02, 0x1d, 0xfd, 0x05, 0xfc,
  0xf0, 0xf5, 0xee, 0x49, 0x08, 0xf4, 0x01, 0x3d, 0xef, 0xfc, 0xd0, 0xfe,
  0x2e, 0x00, 0xf7, 0x04, 0x0b, 0xef, 0xfe, 0xeb, 0x05, 0xef, 0xe7, 0x25,
  0xb6, 0xef, 0xcd, 0x06, 0x08, 0x16, 0x29, 0x38, 0xd8, 0xe2, 0xfc, 0xcc,
  0xd9, 0x09, 0xf5, 0xf3, 0x0a, 0xcb, 0x14, 0x35, 0xf1, 0x25, 0x1a, 0x16,
  0xf1, 0x00, 0xea, 0x27, 0xc9, 0xec, 0xec, 0xf2, 0x09, 0xc6, 0x11, 0xf6,
  0xe8, 0x1b, 0xfb, 0x0f, 0xe8, 0x13, 0xfa, 0x0d, 0xde, 0xf6, 0xf0, 0xfb,
  0x0e, 0xec, 0x27, 0xf1, 0x0d, 0xfd, 0x04, 0x06, 0x15, 0xf6, 0x00, 0xd9,
  0xde, 0xeb, 0xf5, 0x0f, 0xf1, 0x0f, 0x05, 0xf4, 0x09, 0x05, 0x08, 0x0a,
  0x13, 0x27, 0xd7, 0xd1, 0x1a, 0x25, 0x06, 0x14, 0xd1, 0x0c, 0xe3, 0x12,
  0x0d, 0xfa, 0x1a, 0xfa, 0xef, 0xe2, 0xfc, 0x13, 0x19, 0x10, 0x02, 0xdd,
  0x13, 0xf1, 0x0a, 0x04, 0xe6, 0xf8, 0xe6, 0x1e, 0xe3, 0xed, 0x0f, 0x17,
  0xe5, 0xfc, 0x0a, 0xfb, 0xed, 0xde, 0xe2, 0xf7, 0xdb, 0xfd, 0xe7, 0x0c,
  0x04, 0x1b, 0xd5, 0x03, 0xfc, 0x0b, 0xf9, 0x09, 0x47, 0xec, 0x1d, 0x05,
  0x0b, 0xfa, 0x01, 0x14, 0x02, 0x16, 0x0a, 0x01, 0x15, 0x10, 0xef, 0x0d,
  0xfd, 0x10, 0xfa, 0x2a, 0x2b, 0x01, 0xd8, 0x0b, 0xfc, 0x30, 0xf2, 0x1e,
  0x04, 0x00, 0xde, 0x22, 0xf7, 0xff, 0xfa, 0x15, 0x17, 0x04, 0x0b, 0x0b,
  0xf1, 0xfe, 0xf3, 0x0e, 0x0e, 0x19, 0x10, 0xe9, 0x11, 0x0b, 0x00, 0x03,
  0x0f, 0xf2, 0x20, 0x05, 0x2a, 0xf8, 0x02, 0x04, 0x07, 0x05, 0x1e, 0x38,
  0x1e, 0xfc, 0x03, 0xe9, 0xe3, 0xd0, 0x0a, 0x25, 0x41, 0xef, 0x00, 0xe0,
  0x13, 0x63, 0xc0, 0xb0, 0x30, 0x9b, 0xcc, 0x49, 0x22, 0x4e, 0xf3, 0xca,
  0xdf, 0xfa, 0x48, 0x27, 0x07, 0xb9, 0xa9, 0x1e, 0xeb, 0xff, 0x97, 0xe2,
  0x1f, 0xad, 0xd8, 0x1f, 0x03, 0xe3, 0xb6, 0x1e, 0x31, 0x0d, 0xbc, 0xd3,
  0x5f, 0x00, 0xbb, 0x5d, 0x8e, 0xf1, 0xa5, 0xcc, 0xdf, 0xdf, 0xd4, 0x25,
  0x06, 0x39, 0xa3, 0xb8, 0xbd, 0xf7, 0xc2, 0x06, 0x4b, 0x3b, 0xc5, 0x99,
  0xbf, 0x36, 0x2d, 0xb8, 0x25, 0xd5, 0xeb, 0xa0, 0x26, 0xdc, 0xb2, 0xb7,
  0x9e, 0x63, 0x17, 0x14, 0x21, 0x48, 0xdf, 0xc5, 0x35, 0xc4, 0x0d, 0x93,
  0xde, 0x34, 0xe6, 0x01, 0x43, 0xb6, 0x13, 0x9f, 0xde, 0x1a, 0x2e, 0x54,
  0xce, 0xc1, 0x26, 0x45, 0x9a, 0x61, 0xb9, 0xb7, 0x03, 0xe6, 0xc2, 0xc0,
  0xc3, 0xb5, 0x05, 0x4a, 0xb0, 0x1e, 0xef, 0xa8, 0xe0, 0xd3, 0x0b, 0xd9,
  0xd9, 0xee, 0x25, 0xae, 0x0d, 0x1f, 0xcb, 0x38, 0xcb, 0x9e, 0x85, 0x9c,
  0x17, 0xeb, 0xd7, 0x5f, 0x92, 0x05, 0xa5, 0xdd, 0x31, 0x91, 0xad, 0x83,
  0x53, 0xe5, 0xf9, 0x9d, 0x81, 0x09, 0xee, 0xd8, 0x8d, 0xd2, 0xb6, 0xf7,
  0x3e, 0x43, 0xb5, 0xe1, 0x92, 0x32, 0xb1, 0x94, 0xa5, 0xbf, 0xf2, 0xe6,
  0xd7, 0xd6, 0xd9, 0xaa, 0x18, 0xf6, 0xeb, 0x05, 0x8d, 0x92, 0x28, 0x83,
  0x5e, 0xb4, 0xb0, 0x04, 0xcd, 0x35, 0xd9, 0x1a, 0x3c, 0x30, 0x46, 0xdc,
  0x1e, 0xb0, 0x1c, 0xbf, 0x19, 0xca, 0x90, 0x12, 0x45, 0xa1, 0xa8, 0xf5,
  0x2f, 0x00, 0x88, 0xab, 0x1a, 0x8a, 0x97, 0xb0, 0xf8, 0xe1, 0x07, 0x42,
  0xf6, 0x87, 0x01, 0xe0, 0x45, 0xba, 0xde, 0xea, 0x2c, 0x27, 0xf9, 0xfb,
  0x52, 0x48, 0xdd, 0x9f, 0x0d, 0x14, 0x33, 0xf3, 0x17, 0xf5, 0xd0, 0xeb,
  0x8a, 0xad, 0x20, 0x38, 0x55, 0x01, 0x46, 0xb0, 0xa8, 0x83, 0xd5, 0x33,
  0xa0, 0xa3, 0xe1, 0x56, 0x2f, 0xd9, 0xb2, 0xb7, 0xb7, 0x15, 0xca, 0xd7,
  0xb6, 0x9d, 0xe3, 0x62, 0xca, 0xb0, 0x1e, 0x93, 0x32, 0x35, 0x01, 0xd3,
  0xc6, 0xa8, 0xa6, 0x94, 0x1b, 0x1f, 0x05, 0xa3, 0xda, 0x47, 0x2b, 0xc7,
  0x32, 0xb6, 0x8e, 0x03, 0xd9, 0x37, 0xe3, 0x35, 0xe6, 0x1e, 0xab, 0x55,
  0xdf, 0xe0, 0x8b, 0x38, 0x4a, 0x9f, 0xb2, 0x17, 0x25, 0x81, 0x48, 0x81,
  0xea, 0x3f, 0x9e, 0xab, 0xe0, 0xaa, 0x0b, 0xe1, 0xda, 0xc7, 0xcc, 0xe1,
  0x19, 0x3c, 0x82, 0x2c, 0xa9, 0xfe, 0x9c, 0xa8, 0x54, 0xeb, 0xd9, 0xce,
  0xba, 0x89, 0x54, 0xe3, 0xb5, 0xcd, 0x31, 0x3e, 0x1d, 0x99, 0xf5, 0x53,
  0xc8, 0x0b, 0xd7, 0xeb, 0x02, 0xd8, 0xd9, 0xc9, 0x84, 0x91, 0x33, 0xc3,
  0x35, 0x94, 0x3c, 0x37, 0x02, 0xa8, 0xdd, 0xf7, 0x63, 0xe5, 0xae, 0x41,
  0xb2, 0x91, 0x1d, 0x95, 0xcb, 0x9f, 0xba, 0xa0, 0xe8, 0xab, 0xa3, 0x85,
  0xb9, 0xef, 0x40, 0x9b, 0x5a, 0xd2, 0xbb, 0xd4, 0x3a, 0xd1, 0x38, 0xd6,
  0xcf, 0x5d, 0x63, 0x47, 0xee, 0x26, 0xe7, 0x1c, 0x16, 0xcc, 0x09, 0x1b,
  0x0d, 0x08, 0x0e, 0x14, 0xf8, 0xdc, 0xfb, 0xcc, 0x1a, 0xd0, 0x02, 0x13,
  0x10, 0x8f, 0x0c, 0x28, 0x05, 0xe6, 0xea, 0x11, 0x23, 0xe0, 0xe2, 0x25,
  0x08, 0x0c, 0xfa, 0xeb, 0xea, 0xe5, 0xef, 0x49, 0x0c, 0xe6, 0xf5, 0xf3,
  0xf4, 0xdf, 0xfb, 0xeb, 0xc9, 0xe8, 0xf3, 0x19, 0xd6, 0xdd, 0x25, 0xff,
  0xef, 0xf1, 0xf0, 0x02, 0xf2, 0xff, 0x0b, 0xf6, 0xfb, 0xde, 0x07, 0x0b,
  0xdb, 0xe6, 0x15, 0x16, 0x22, 0x0b, 0x0d, 0xed, 0x1d, 0xed, 0x97, 0xf3,
  0x02, 0x0a, 0x23, 0xe0, 0x17, 0xea, 0xe4, 0xe9, 0xfa, 0xf9, 0x29, 0xde,
  0xf7, 0x34, 0x09, 0xbb, 0xf3, 0x1b, 0x33, 0xe5, 0x7f, 0xf0, 0x57, 0xe4,
  0x07, 0x0d, 0xed, 0x04, 0x28, 0x46, 0xfe, 0x1f, 0x0e, 0x2a, 0xf5, 0x1e,
  0x5e, 0x37, 0xe6, 0xfa, 0x56, 0x0f, 0x27, 0x1b, 0x41, 0x52, 0xfd, 0x34,
  0x19, 0xf4, 0xf3, 0xf7, 0x01, 0x60, 0xdc, 0x17, 0xd2, 0x1a, 0x29, 0x27,
  0xfa, 0xff, 0x40, 0x0c, 0x0f, 0xf9, 0xec, 0x14, 0xed, 0x58, 0xf5, 0x2b,
  0xfe, 0x1c, 0x3a, 0xfc, 0x18, 0xfc, 0x06, 0x1d, 0x06, 0x27, 0x3e, 0xfd,
  0xd3, 0x12, 0xca, 0xee, 0xdf, 0xed, 0xf8, 0xf9, 0xee, 0x1e, 0x31, 0x03,
  0x0b, 0x37, 0x3d, 0x11, 0x1a, 0xfc, 0x28, 0x12, 0xe9, 0x06, 0xfd, 0x2e,
  0x31, 0x0b, 0x3c, 0x01, 0xe9, 0x2f, 0xfa, 0xf0, 0x3f, 0x24, 0x1f, 0x0d,
  0x14, 0xb5, 0x11, 0xe3, 0xfa, 0x1f, 0xf9, 0x2e, 0x52, 0x2d, 0x21, 0x2a,
  0xf9, 0x08, 0x20, 0xed, 0x24, 0xfe, 0xd6, 0xf5, 0xf6, 0x48, 0x2e, 0xd8,
  0x4a, 0x31, 0xef, 0xed, 0xe8, 0x42, 0x07, 0xd2, 0xeb, 0x29, 0x29, 0xf2,
  0x28, 0x2c, 0x2e, 0xf5, 0xe1, 0x07, 0xbc, 0xd2, 0xea, 0x0f, 0x10, 0x13,
  0xc4, 0x19, 0x06, 0xe9, 0xcb, 0x05, 0x16, 0x50, 0xe8, 0xde, 0x26, 0x00,
  0x42, 0x22, 0x11, 0x46, 0x27, 0xda, 0x3b, 0xf7, 0x18, 0xd9, 0xf1, 0x2f,
  0x13, 0xd6, 0x07, 0x24, 0x1d, 0xf6, 0x28, 0xe5, 0x24, 0xb8, 0x2d, 0x08,
  0xea, 0xad, 0xec, 0xee, 0x45, 0x1f, 0x03, 0x3c, 0xef, 0xf8, 0xbc, 0x0f,
  0xd1, 0x0a, 0xe2, 0x31, 0x09, 0x5c, 0xd4, 0xfc, 0x10, 0x07, 0x09, 0xb7,
  0x1b, 0x29, 0xe7, 0x39, 0xef, 0x17, 0x19, 0xeb, 0x04, 0x01, 0xf1, 0x2d,
  0x04, 0xd7, 0xd3, 0xe4, 0xc4, 0xee, 0xfa, 0x07, 0x11, 0x0f, 0xce, 0xd2,
  0x1a, 0xf9, 0x00, 0x15, 0x05, 0xcd, 0xd8, 0xdb, 0xd2, 0xfb, 0x02, 0xf1,
  0x36, 0x11, 0x27, 0xd9, 0xef, 0xc1, 0xf5, 0x3d, 0x1f, 0xfe, 0xce, 0xd0,
  0x52, 0xf4, 0x25, 0xdc, 0xe9, 0x07, 0xff, 0x21, 0xf8, 0xde, 0xff, 0x1b,
  0x09, 0x1e, 0xf5, 0xd4, 0x46, 0xc5, 0xfb, 0x12, 0xec, 0xc9, 0xae, 0xe3,
  0xdd, 0x11, 0x13, 0x1d, 0xfb, 0x1f, 0xe0, 0xce, 0xe0, 0x07, 0x06, 0xd9,
  0x1b, 0xd6, 0xd4, 0x09, 0xf5, 0xcd, 0xeb, 0xf5, 0x23, 0xb9, 0x28, 0x8e,
  0x8c, 0x08, 0x04, 0x10, 0x53, 0x53, 0xe2, 0xf0, 0x30, 0xf1, 0xda, 0xd2,
  0x30, 0xd9, 0x5e, 0xd6, 0x0d, 0x62, 0x43, 0x1d, 0x41, 0xb3, 0xd3, 0x2d,
  0x43, 0xc6, 0xdf, 0xa8, 0x08, 0xdd, 0xbb, 0xa6, 0x96, 0x40, 0xf9, 0xf7,
  0xe2, 0x5c, 0x00, 0x8e, 0x8e, 0xa6, 0x29, 0x59, 0xb4, 0x04, 0x8e, 0x25,
  0x46, 0xc7, 0xb3, 0xb2, 0x26, 0xc1, 0xd8, 0xcc, 0x0d, 0xb2, 0xf2, 0xc3,
  0x5d, 0x12, 0x2f, 0x0a, 0x31, 0xef, 0x13, 0xcf, 0x37, 0xb6, 0xac, 0x1f,
  0xa3, 0x4a, 0x3b, 0xf6, 0x37, 0x14, 0xf8, 0x0c, 0xb4, 0x4b, 0x38, 0xf7,
  0x58, 0x08, 0x84, 0xeb, 0xf5, 0x3c, 0x25, 0xdc, 0xd4, 0xe5, 0xee, 0x9f,
  0x97, 0xee, 0xf1, 0xb0, 0x9b, 0xa3, 0x8c, 0xbb, 0xd8, 0x1a, 0x1c, 0x50,
  0x24, 0x8e, 0xfa, 0xe3, 0x2c, 0xd8, 0x55, 0xdc, 0xb0, 0x8e, 0x4f, 0x44,
  0xef, 0xb9, 0x0e, 0xf5, 0x11, 0x24, 0x17, 0x4c, 0xd4, 0xaa, 0x81, 0xfa,
  0xbf, 0x83, 0x91, 0x58, 0xb8, 0x95, 0x93, 0x97, 0xf0, 0xf5, 0xa8, 0x1f,
  0x18, 0x1a, 0x98, 0xa8, 0x52, 0xe3, 0x10, 0xbd, 0x84, 0xb1, 0x1a, 0x1c,
  0x94, 0xf7, 0xb1, 0xf0, 0xb5, 0xab, 0x9f, 0xeb, 0x0d, 0xf9, 0xca, 0xe5,
  0x1e, 0xa4, 0xa2, 0xe9, 0x9d, 0x3d, 0xbe, 0xdc, 0x01, 0x84, 0x04, 0x4e,
  0xf6, 0x03, 0x44, 0x65, 0xaf, 0xa2, 0x20, 0x5e, 0xdf, 0x89, 0x24, 0x24,
  0x17, 0x4a, 0x96, 0xc3, 0x50, 0xc2, 0xf3, 0xed, 0x92, 0xaa, 0x13, 0xbf,
  0x3c, 0x8c, 0x08, 0xbe, 0xe9, 0x44, 0xfa, 0xf4, 0xac, 0xf3, 0xd9, 0x18,
  0xa4, 0x24, 0xff, 0x25, 0x54, 0xfc, 0xdf, 0x5a, 0xa3, 0x57, 0xeb, 0xad,
  0xd4, 0xf8, 0xfb, 0x21, 0xeb, 0xb3, 0xe3, 0x20, 0x97, 0x94, 0xa9, 0x1b,
  0xf9, 0x52, 0xbe, 0xa8, 0x18, 0xe0, 0x02, 0xb7, 0x32, 0xa6, 0x2f, 0x95,
  0x06, 0xd1, 0xe4, 0xe9, 0x52, 0xb5, 0xfa, 0xe3, 0x9f, 0xea, 0xdb, 0x63,
  0xca, 0x9d, 0xe0, 0xda, 0xe8, 0x40, 0x99, 0x3f, 0xe2, 0xd7, 0xf1, 0x21,
  0x15, 0xb7, 0x2b, 0x1e, 0xba, 0xb0, 0xcc, 0x18, 0x97, 0x89, 0x23, 0x37,
  0x2c, 0x5c, 0xff, 0xbb, 0xe8, 0x1c, 0xfc, 0x24, 0x56, 0xb5, 0xc3, 0x16,
  0xff, 0x95, 0xa4, 0xbe, 0x0c, 0x34, 0x01, 0x4a, 0x0a, 0x1b, 0xdb, 0xd7,
  0x18, 0x8a, 0x4c, 0xcd, 0xbb, 0x1c, 0x62, 0xdf, 0x53, 0x47, 0xc0, 0xbe,
  0x35, 0x35, 0x01, 0xdb, 0xc4, 0x58, 0xa9, 0xeb, 0xc9, 0x16, 0x0b, 0xa1,
  0x9e, 0x54, 0xc4, 0xe6, 0x3e, 0x3f, 0x42, 0x1d, 0xb6, 0xea, 0xb3, 0x59,
  0x95, 0x4f, 0x03, 0xa2, 0xdd, 0xb7, 0xa7, 0x85, 0x9d, 0xb6, 0x15, 0xce,
  0x0c, 0x04, 0xb4, 0xdd, 0x05, 0x39, 0x4e, 0xca, 0x8f, 0x32, 0xdb, 0xdd,
  0xca, 0xcf, 0x8a, 0x29, 0x1d, 0x0f, 0xb6, 0x48, 0xee, 0x52, 0x42, 0xba,
  0x47, 0x4c, 0x21, 0xf5, 0x2d, 0xb4, 0x1e, 0x08, 0xe4, 0xfd, 0xa2, 0xd1,
  0xf6, 0xd9, 0x18, 0x1d, 0x10, 0xf1, 0x2e, 0x23, 0x2a, 0x04, 0x09, 0xed,
  0xf9, 0x02, 0x01, 0xd3, 0x12, 0x05, 0x13, 0x11, 0xe2, 0x05, 0x14, 0xd9,
  0x00, 0x0c, 0xec, 0xe7, 0xe0, 0x00, 0xfc, 0xf5, 0x0b, 0x2b, 0xef, 0x2c,
  0x08, 0xe1, 0x51, 0xf9, 0xe5, 0x27, 0xf2, 0x0a, 0xed, 0x18, 0x10, 0x21,
  0x23, 0xf7, 0x14, 0xdd, 0x21, 0x21, 0x2c, 0xe9, 0xe6, 0x11, 0xf6, 0xe3,
  0xfd, 0xe5, 0x2b, 0xe0, 0x72, 0xf3, 0x10, 0x05, 0xe2, 0xf7, 0xf4, 0x01,
  0xd5, 0x08, 0xf6, 0x16, 0xee, 0xf2, 0x4a, 0xdf, 0x05, 0x06, 0x0e, 0x04,
  0xd9, 0x0a, 0x2c, 0x02, 0xfd, 0x1f, 0x01, 0x07, 0x0c, 0x1f, 0x22, 0x2e,
  0x04, 0x03, 0x0a, 0xd2, 0x08, 0x0e, 0x15, 0xe2, 0xe7, 0x1e, 0xfe, 0xfd,
  0xe3, 0xf4, 0xfb, 0x0d, 0x1a, 0xfd, 0x12, 0xc7, 0x2b, 0xe6, 0x43, 0xf0,
  0xe1, 0xfc, 0xdd, 0x02, 0x05, 0x03, 0x19, 0x08, 0x25, 0x08, 0x03, 0xfa,
  0x3a, 0xd1, 0x3d, 0xf0, 0xa2, 0x04, 0xc3, 0xd4, 0x12, 0x2f, 0x03, 0xe8,
  0x4c, 0x27, 0xfc, 0xd5, 0x2a, 0xda, 0x1a, 0xe0, 0xbc, 0x16, 0xf9, 0xdf,
  0xe2, 0x18, 0x0c, 0xe5, 0x07, 0x06, 0x3d, 0xff, 0xf2, 0x0d, 0xd2, 0x04,
  0xee, 0x2a, 0xfb, 0xf8, 0x23, 0x36, 0x0d, 0x00, 0xf7, 0x05, 0x3f, 0xd3,
  0x01, 0x22, 0xcc, 0xfb, 0xfe, 0x10, 0x21, 0xe6, 0x2a, 0xde, 0xf1, 0xe4,
  0x34, 0x0f, 0x0e, 0xf0, 0x0d, 0x16, 0x34, 0xed, 0xfa, 0x04, 0x02, 0xf9,
  0x0f, 0x06, 0x2a, 0xc1, 0x2d, 0x00, 0x04, 0x05, 0x11, 0xd9, 0x18, 0xcd,
  0x8a, 0x1b, 0xbb, 0xef, 0xd4, 0x1d, 0x2d, 0x2c, 0xe2, 0xf7, 0x22, 0xc3,
  0x12, 0xc2, 0x06, 0x0d, 0x81, 0x1f, 0xfc, 0xdd, 0xd6, 0x2e, 0xe7, 0x23,
  0xfd, 0xfb, 0x29, 0xf7, 0x03, 0xee, 0xf2, 0xf5, 0x26, 0x0b, 0x17, 0x2b,
  0xf9, 0x0e, 0x06, 0x18, 0x1e, 0x18, 0xef, 0xe1, 0x01, 0xe4, 0xb6, 0x17,
  0xdb, 0x34, 0xe7, 0x18, 0xe9, 0x0f, 0xda, 0x2f, 0xf2, 0x08, 0xfe, 0xfd,
  0x4d, 0xdd, 0x07, 0x11, 0xfa, 0xfc, 0xeb, 0xf4, 0x13, 0x39, 0x21, 0x49,
  0x09, 0x0e, 0xdc, 0x15, 0x22, 0xef, 0xd4, 0xf7, 0xcb, 0x02, 0x15, 0x10,
  0x12, 0x21, 0xf8, 0x29, 0xed, 0x0c, 0x08, 0xe2, 0x19, 0x14, 0xd3, 0x1b,
  0x1d, 0x06, 0xf2, 0x2d, 0xf5, 0x38, 0xc6, 0xf0, 0x14, 0x10, 0xf9, 0xce,
  0x53, 0xf7, 0x3a, 0x0f, 0xe4, 0x0f, 0x36, 0xe8, 0x25, 0x08, 0x1e, 0x02,
  0x0f, 0x0b, 0xf3, 0xc1, 0x23, 0xcd, 0x15, 0x19, 0xd6, 0xf7, 0x1c, 0x11,
  0x00, 0x34, 0x2a, 0x27, 0x0e, 0xf8, 0x28, 0xfd, 0x13, 0xfb, 0xd5, 0x1b,
  0xed, 0x02, 0x3c, 0x14, 0x3b, 0x06, 0xdf, 0x1a, 0x12, 0xfc, 0x45, 0x16,
  0xd3, 0x44, 0x0c, 0x26, 0x33, 0xed, 0x0f, 0x10, 0x32, 0x0e, 0xd9, 0xec,
  0x4e, 0x18, 0x30, 0x61, 0x10, 0x36, 0x18, 0x30, 0x4d, 0x06, 0x2b, 0x62,
  0x46, 0x03, 0x22, 0xeb, 0x0b, 0x0c, 0x0a, 0xf2, 0x2d, 0x29, 0x34, 0x62,
  0x2a, 0x1f, 0xe3, 0xfc, 0xfc, 0x18, 0x00, 0x0e, 0xf7, 0xee, 0xee, 0xef,
  0x27, 0x44, 0x59, 0x2b, 0xff, 0x12, 0xff, 0x10, 0x1b, 0x1b, 0xe8, 0x45,
  0x04, 0xff, 0xe4, 0xf5, 0x0e, 0x18, 0x22, 0xec, 0x08, 0xd4, 0xe2, 0xff,
  0x1a, 0x0e, 0x32, 0xf8, 0xeb, 0xe9, 0x06, 0xec, 0x08, 0xf8, 0x12, 0xe0,
  0x1f, 0xee, 0xe5, 0xe8, 0xfd, 0xd9, 0x26, 0x04, 0xdc, 0xf0, 0xcd, 0xee,
  0xef, 0xeb, 0xec, 0xea, 0x0e, 0x0a, 0xd5, 0xe7, 0xdb, 0xda, 0x33, 0x15,
  0x10, 0xee, 0x11, 0x0e, 0x22, 0x03, 0x22, 0xf7, 0x21, 0x14, 0x15, 0xde,
  0x01, 0x1c, 0x0d, 0x22, 0x25, 0xfa, 0x1b, 0x1e, 0xfa, 0xff, 0x7f, 0x01,
  0x24, 0x0a, 0xe7, 0x03, 0x06, 0x0d, 0x0f, 0x3f, 0x1d, 0xee, 0xcf, 0xde,
  0xf7, 0x05, 0x3b, 0x02, 0xd0, 0x04, 0xef, 0x20, 0x14, 0x16, 0x0e, 0x17,
  0xf9, 0x0d, 0x0a, 0xee, 0x22, 0xda, 0x28, 0xdc, 0xe2, 0x13, 0xeb, 0x26,
  0x07, 0x3a, 0x0a, 0x0f, 0xe8, 0xe8, 0xf9, 0x38, 0x28, 0xe0, 0x1b, 0xe0,
  0x0a, 0x19, 0xf7, 0x11, 0x0e, 0xf7, 0xd6, 0x03, 0x01, 0x04, 0xf0, 0xe2,
  0xc0, 0xf5, 0xf7, 0x07, 0x08, 0xfa, 0x26, 0xf2, 0xce, 0x21, 0x15, 0x2b,
  0xfa, 0xeb, 0xce, 0x25, 0xff, 0xe9, 0x21, 0x24, 0x0c, 0x0e, 0xf9, 0x31,
  0xdb, 0xec, 0xfd, 0x4f, 0xea, 0xfc, 0x12, 0xe3, 0x08, 0xe5, 0xc9, 0x08,
  0xf0, 0x15, 0x04, 0x20, 0x13, 0x34, 0xb9, 0x2d, 0xef, 0x2b, 0x0d, 0x1b,
  0x16, 0xf1, 0x0a, 0xf6, 0xfd, 0x21, 0x02, 0x1a, 0x28, 0x1c, 0x14, 0x0d,
  0x1b, 0x39, 0x0b, 0xd6, 0x1e, 0x0a, 0x00, 0x01, 0xc6, 0x2a, 0x4a, 0xf1,
  0x28, 0x12, 0xfa, 0xe6, 0xe7, 0x16, 0xed, 0xd8, 0x00, 0xe5, 0x1d, 0x02,
  0xe7, 0xda, 0xed, 0xce, 0xca, 0x08, 0xd0, 0xff, 0xfe, 0x27, 0x0b, 0x06,
  0x23, 0xfc, 0x0c, 0x04, 0xeb, 0xf7, 0x0c, 0xdb, 0x02, 0xdc, 0xfb, 0x1f,
  0x03, 0x1a, 0x01, 0xe8, 0x0e, 0x11, 0x07, 0xfd, 0x0e, 0x09, 0x08, 0xf6,
  0xf6, 0xe8, 0xd4, 0xf2, 0x22, 0x04, 0x0f, 0x21, 0x0a, 0xf4, 0xda, 0xed,
  0xe2, 0x03, 0x01, 0x2c, 0x09, 0x12, 0x00, 0x06, 0xee, 0x31, 0xca, 0xcb,
  0x06, 0x0d, 0xd3, 0x3d, 0x00, 0x22, 0x16, 0x06, 0xe8, 0xf0, 0xf6, 0x2d,
  0xf8, 0xef, 0xf1, 0xf9, 0xf9, 0xe2, 0x1b, 0xf9, 0x02, 0xc8, 0xc1, 0x09,
  0xff, 0x07, 0xce, 0xe8, 0x11, 0xe7, 0xc2, 0x2a, 0xd2, 0x0b, 0xfb, 0x11,
  0x07, 0xfa, 0xc0, 0x1b, 0xda, 0xd8, 0xe5, 0xff, 0x10, 0x06, 0xdf, 0x02,
  0xd5, 0x15, 0x1a, 0xd3, 0xf6, 0x0a, 0x07, 0x31, 0xe2, 0xec, 0xfc, 0x13,
  0x0b, 0x10, 0x0a, 0xe8, 0xfd, 0x14, 0xdf, 0x03, 0x19, 0xfb, 0xf2, 0x04,
  0xda, 0xfc, 0x17, 0x2d, 0xff, 0x0f, 0xee, 0xb9, 0xfc, 0x27, 0xeb, 0x00,
  0x3d, 0x00, 0xfe, 0x28, 0x03, 0xed, 0xd8, 0xed, 0x1a, 0x04, 0x09, 0x0f,
  0xee, 0x24, 0x14, 0x0e, 0xeb, 0x19, 0xd5, 0x00, 0xff, 0xf1, 0xef, 0x11,
  0x03, 0x0f, 0xdc, 0xe2, 0xe2, 0xeb, 0x08, 0x02, 0xe1, 0x14, 0xdd, 0x07,
  0xe1, 0x27, 0xd5, 0x42, 0xf1, 0x0f, 0x06, 0xfe, 0xeb, 0xfe, 0xc5, 0xf3,
  0xe7, 0x0d, 0x10, 0xe0, 0x08, 0xd7, 0xd9, 0xe4, 0xdf, 0xfe, 0x02, 0x18,
  0x0a, 0xe3, 0x0c, 0x25, 0xda, 0x04, 0x25, 0x21, 0x1c, 0xf4, 0x01, 0xeb,
  0xff, 0x14, 0xff, 0xed, 0x2f, 0x18, 0x24, 0xe1, 0xe6, 0xcd, 0x16, 0xff,
  0x0a, 0xff, 0x47, 0xff, 0x15, 0x1b, 0x06, 0x10, 0xba, 0xcd, 0x02, 0x14,
  0xdb, 0xfd, 0x07, 0xf4, 0xe7, 0x01, 0x15, 0x17, 0xee, 0xe3, 0xe3, 0x09,
  0x04, 0xd2, 0xbd, 0x0d, 0xf2, 0x36, 0x10, 0x2b, 0xe9, 0x13, 0xfa, 0x0d,
  0xef, 0xf3, 0x0c, 0x02, 0x0a, 0xe3, 0x81, 0xe0, 0xe9, 0x0a, 0x17, 0x20,
  0xf7, 0xdd, 0xba, 0x01, 0x14, 0xcf, 0x27, 0xe1, 0xe0, 0x11, 0xfe, 0x02,
  0xf9, 0x0b, 0xef, 0x00, 0x0d, 0xea, 0x2c, 0xfc, 0x3d, 0xf0, 0x40, 0x2a,
  0xf8, 0xfd, 0x3a, 0xfc, 0x1f, 0xef, 0xfb, 0xe3, 0xfd, 0x0d, 0x5e, 0xe1,
  0x0d, 0xfe, 0x1d, 0xf4, 0x20, 0xf4, 0xdc, 0xed, 0xff, 0x03, 0x4b, 0x0a,
  0x26, 0xfe, 0x07, 0x15, 0x03, 0xff, 0x30, 0x16, 0x07, 0xf1, 0xba, 0xe5,
  0xdd, 0x1f, 0xf3, 0x01, 0xf5, 0x15, 0xe7, 0xdd, 0xe7, 0xc9, 0x2d, 0x25,
  0x17, 0xfe, 0xd7, 0xe7, 0x1e, 0xe9, 0x10, 0xfa, 0x08, 0x11, 0x0d, 0xf0,
  0x0c, 0xd6, 0x06, 0x06, 0xd8, 0x02, 0xc8, 0x19, 0x3f, 0x2a, 0x42, 0x01,
  0xf0, 0xc6, 0xfd, 0xe8, 0xec, 0xed, 0xf3, 0xf3, 0xe4, 0xf8, 0x07, 0x12,
  0x03, 0x32, 0x0e, 0x01, 0xe2, 0xfd, 0x2a, 0xec, 0x0e, 0x0a, 0x13, 0xe5,
  0x38, 0x06, 0x1d, 0xda, 0xf1, 0x2b, 0x12, 0x02, 0x2c, 0x1f, 0x04, 0xd6,
  0x07, 0x00, 0x17, 0xc2, 0x0e, 0xf4, 0xd3, 0x13, 0xbb, 0x15, 0x10, 0xe6,
  0x1d, 0x2b, 0x14, 0xf7, 0xf1, 0x20, 0x1c, 0x03, 0x1c, 0x0a, 0x05, 0x0f,
  0xb2, 0xe6, 0x13, 0xfa, 0x2f, 0x02, 0x37, 0xf0, 0xe2, 0xe5, 0xf0, 0xf0,
  0x09, 0xf8, 0x09, 0x02, 0x24, 0x27, 0x2f, 0x0a, 0x03, 0xd5, 0x2f, 0xfe,
  0x04, 0x15, 0xf6, 0x08, 0xe9, 0x0f, 0x00, 0x00, 0x13, 0xf0, 0xe9, 0x1f,
  0x04, 0xd6, 0x1e, 0x46, 0x26, 0x23, 0x1b, 0xa8, 0x41, 0xf5, 0x09, 0x1f,
  0xe0, 0x1d, 0x11, 0xd5, 0x1f, 0x50, 0x2e, 0xf1, 0x1f, 0x13, 0x16, 0xb5,
  0x40, 0x26, 0xec, 0x01, 0xfd, 0x01, 0xd4, 0xe8, 0x30, 0x36, 0x18, 0xaa,
  0x0b, 0xf0, 0x54, 0xe8, 0xfc, 0x3f, 0xeb, 0x20, 0x23, 0xdc, 0x1c, 0xdd,
  0x27, 0x17, 0xef, 0xd3, 0xef, 0x12, 0x1c, 0x45, 0x1a, 0xf3, 0x02, 0x00,
  0xed, 0x13, 0x18, 0x08, 0x24, 0x0a, 0x10, 0xf4, 0xbf, 0xe1, 0xec, 0x22,
  0xf6, 0x05, 0x04, 0xe4, 0x30, 0xfc, 0xf6, 0xdf, 0xff, 0xf6, 0xcc, 0xdd,
  0x56, 0xfc, 0xff, 0xff, 0x04, 0x00, 0x00, 0x00, 0x80, 0x00, 0x00, 0x00,
  0x72, 0x01, 0x00, 0x00, 0x65, 0xfe, 0xff, 0xff, 0xd5, 0xfe, 0xff, 0xff,
  0x4c, 0xfc, 0xff, 0xff, 0x9f, 0x00, 0x00, 0x00, 0xd7, 0xfd, 0xff, 0xff,
  0x04, 0x06, 0x00, 0x00, 0x38, 0xff, 0xff, 0xff, 0xe2, 0x02, 0x00, 0x00,
  0x66, 0xf9, 0xff, 0xff, 0x99, 0x01, 0x00, 0x00, 0x9e, 0xff, 0xff, 0xff,
  0xf7, 0x01, 0x00, 0x00, 0x80, 0xfd, 0xff, 0xff, 0xce, 0x04, 0x00, 0x00,
  0x1e, 0x06, 0x00, 0x00, 0xbb, 0x00, 0x00, 0x00, 0x93, 0x03, 0x00, 0x00,
  0x38, 0x04, 0x00, 0x00, 0x90, 0x01, 0x00, 0x00, 0x2d, 0xfe, 0xff, 0xff,
  0xf2, 0xfe, 0xff, 0xff, 0x0b, 0xfc, 0xff, 0xff, 0x37, 0xfe, 0xff, 0xff,
  0x5b, 0xff, 0xff, 0xff, 0x72, 0xfe, 0xff, 0xff, 0xa2, 0xfa, 0xff, 0xff,
  0x7c, 0x03, 0x00, 0x00, 0xd6, 0xfc, 0xff, 0xff, 0x9a, 0x06, 0x00, 0x00,
  0xd9, 0xff, 0xff, 0xff, 0xea, 0xfe, 0xff, 0xff, 0xe2, 0xfc, 0xff, 0xff,
  0x04, 0x00, 0x00, 0x00, 0x40, 0x01, 0x00, 0x00, 0xf6, 0xc6, 0xce, 0xcd,
  0xe2, 0x2f, 0xb9, 0x9f, 0xd3, 0x15, 0x2e, 0x4d, 0x07, 0x41, 0x33, 0xe0,
  0xee, 0x4c, 0x45, 0x10, 0x96, 0x7f, 0xac, 0x0f, 0xbc, 0xea, 0xf9, 0x09,
  0x16, 0x3a, 0x0f, 0x46, 0xe6, 0x43, 0xad, 0xe1, 0xfb, 0x18, 0x4f, 0xd9,
  0x7f, 0xa4, 0x88, 0x86, 0x1c, 0xde, 0xfe, 0x2f, 0xa0, 0x57, 0xd2, 0x41,
  0x7b, 0x3b, 0xc1, 0xea, 0xe0, 0x1a, 0x19, 0x91, 0x13, 0x39, 0xb0, 0xbb,
  0x98, 0x36, 0xc7, 0xe5, 0x03, 0x35, 0xc6, 0xed, 0x81, 0xb3, 0xde, 0x91,
  0x34, 0x53, 0xff, 0xac, 0x44, 0x5d, 0x36, 0xe4, 0x25, 0x1b, 0x23, 0x14,
  0xbe, 0x4b, 0xfd, 0xfd, 0xf7, 0x33, 0x3d, 0x38, 0x05, 0x31, 0x38, 0x55,
  0x22, 0xf0, 0xe0, 0xfc, 0x8f, 0xb3, 0x00, 0x5d, 0xca, 0x48, 0xcf, 0xd0,
  0xc7, 0xdc, 0xaf, 0x2b, 0x36, 0x2a, 0x29, 0xf6, 0x0d, 0x44, 0x27, 0x81,
  0x26, 0x8e, 0x2e, 0x24, 0x3c, 0xc5, 0x3c, 0x4d, 0xf9, 0x17, 0x1d, 0xe3,
  0xff, 0x40, 0x9a, 0xd4, 0x90, 0x40, 0x93, 0x2b, 0x35, 0x73, 0x9e, 0x83,
  0x1c, 0x90, 0xf8, 0xf7, 0x1a, 0x81, 0xd2, 0x26, 0x48, 0x25, 0x58, 0xea,
  0x0b, 0xc7, 0x39, 0xaf, 0x0f, 0xfa, 0x28, 0x12, 0xd6, 0x2a, 0x48, 0xfb,
  0x08, 0xe6, 0x4b, 0xe4, 0xcf, 0x22, 0xbe, 0xd6, 0x13, 0x26, 0x28, 0x34,
  0xe7, 0x81, 0x1a, 0x0a, 0xbe, 0xad, 0xa8, 0xe2, 0x00, 0xea, 0xe8, 0x82,
  0x52, 0x35, 0x28, 0x81, 0xd2, 0x11, 0x1a, 0x46, 0x3b, 0xc4, 0xbc, 0x14,
  0x47, 0x23, 0xf5, 0xda, 0xe5, 0xfb, 0x8e, 0x44, 0xc3, 0xe6, 0x08, 0xcc,
  0x31, 0xc0, 0x4e, 0x53, 0xaa, 0xf8, 0xe2, 0xe8, 0x85, 0x86, 0xbb, 0x2e,
  0x71, 0xa6, 0x95, 0xaf, 0xfe, 0x64, 0xfc, 0x08, 0xf1, 0x81, 0xf8, 0x51,
  0x53, 0x71, 0x0f, 0xa7, 0xdd, 0x11, 0xdb, 0x71, 0xfb, 0x87, 0x5d, 0x9c,
  0x0e, 0x23, 0x51, 0xe0, 0xe4, 0xc3, 0x26, 0xe5, 0x81, 0xe8, 0xd3, 0xc1,
  0xc8, 0x36, 0xec, 0x56, 0x61, 0xbe, 0xcf, 0x3f, 0xe5, 0xea, 0x0f, 0xb5,
  0xca, 0xcd, 0xdd, 0xe7, 0xdc, 0xe7, 0xaf, 0x2d, 0x67, 0xe3, 0x48, 0xcb,
  0xe8, 0x3e, 0xf6, 0x5d, 0xa7, 0xae, 0xa1, 0x10, 0xee, 0x2b, 0x9f, 0x52,
  0xc4, 0x52, 0x12, 0x9a, 0x81, 0xec, 0x08, 0x3c, 0x36, 0x63, 0xec, 0x21,
  0x64, 0xf4, 0x09, 0x2a, 0x2e, 0xfe, 0xff, 0xff, 0x04, 0x00, 0x00, 0x00,
  0x28, 0x00, 0x00, 0x00, 0x61, 0x00, 0x00, 0x00, 0x56, 0x01, 0x00, 0x00,
  0x01, 0x00, 0x00, 0x00, 0x35, 0xfe, 0xff, 0xff, 0x80, 0xff, 0xff, 0xff,
  0x60, 0x00, 0x00, 0x00, 0x84, 0x00, 0x00, 0x00, 0x3b, 0xff, 0xff, 0xff,
  0xf6, 0x00, 0x00, 0x00, 0x91, 0xff, 0xff, 0xff, 0x62, 0xfe, 0xff, 0xff,
  0x04, 0x00, 0x00, 0x00, 0x04, 0x00, 0x00, 0x00, 0x90, 0x01, 0x00, 0x00,
  0x72, 0xfe, 0xff, 0xff, 0x04, 0x00, 0x00, 0x00, 0x04, 0x00, 0x00, 0x00,
  0x01, 0x00, 0x00, 0x00, 0x82, 0xfe, 0xff, 0xff, 0x04, 0x00, 0x00, 0x00,
  0x04, 0x00, 0x00, 0x00, 0x00, 0x00, 0x00, 0x00, 0x90, 0xec, 0xff, 0xff,
  0x94, 0xec, 0xff, 0xff, 0x0f, 0x00, 0x00, 0x00, 0x4d, 0x4c, 0x49, 0x52,
  0x20, 0x43, 0x6f, 0x6e, 0x76, 0x65, 0x72, 0x74, 0x65, 0x64, 0x2e, 0x00,
  0x01, 0x00, 0x00, 0x00, 0x14, 0x00, 0x00, 0x00, 0x00, 0x00, 0x0e, 0x00,
  0x18, 0x00, 0x14, 0x00, 0x10, 0x00, 0x0c, 0x00, 0x08, 0x00, 0x04, 0x00,
  0x0e, 0x00, 0x00, 0x00, 0x14, 0x00, 0x00, 0x00, 0x1c, 0x00, 0x00, 0x00,
  0x10, 0x03, 0x00, 0x00, 0x14, 0x03, 0x00, 0x00, 0x18, 0x03, 0x00, 0x00,
  0x04, 0x00, 0x00, 0x00, 0x6d, 0x61, 0x69, 0x6e, 0x00, 0x00, 0x00, 0x00,
  0x0b, 0x00, 0x00, 0x00, 0xa8, 0x02, 0x00, 0x00, 0x44, 0x02, 0x00, 0x00,
  0xf0, 0x01, 0x00, 0x00, 0xac, 0x01, 0x00, 0x00, 0x70, 0x01, 0x00, 0x00,
  0x20, 0x01, 0x00, 0x00, 0xe0, 0x00, 0x00, 0x00, 0xb8, 0x00, 0x00, 0x00,
  0x70, 0x00, 0x00, 0x00, 0x38, 0x00, 0x00, 0x00, 0x04, 0x00, 0x00, 0x00,
  0xf2, 0xfd, 0xff, 0xff, 0x14, 0x00, 0x00, 0x00, 0x00, 0x00, 0x00, 0x09,
  0x14, 0x00, 0x00, 0x00, 0x18, 0x00, 0x00, 0x00, 0x07, 0x00, 0x00, 0x00,
  0x32, 0xff, 0xff, 0xff, 0x00, 0x00, 0x80, 0x3f, 0x01, 0x00, 0x00, 0x00,
  0x16, 0x00, 0x00, 0x00, 0x01, 0x00, 0x00, 0x00, 0x15, 0x00, 0x00, 0x00,
  0x22, 0xfe, 0xff, 0xff, 0x14, 0x00, 0x00, 0x00, 0x00, 0x00, 0x00, 0x08,
  0x10, 0x00, 0x00, 0x00, 0x14, 0x00, 0x00, 0x00, 0x06, 0x00, 0x00, 0x00,
  0x60, 0xed, 0xff, 0xff, 0x01, 0x00, 0x00, 0x00, 0x15, 0x00, 0x00, 0x00,
  0x03, 0x00, 0x00, 0x00, 0x14, 0x00, 0x00, 0x00, 0x05, 0x00, 0x00, 0x00,
  0x04, 0x00, 0x00, 0x00, 0x56, 0xfe, 0xff, 0xff, 0x14, 0x00, 0x00, 0x00,
  0x00, 0x00, 0x00, 0x08, 0x14, 0x00, 0x00, 0x00, 0x18, 0x00, 0x00, 0x00,
  0x06, 0x00, 0x00, 0x00, 0x0e, 0xff, 0xff, 0xff, 0x00, 0x00, 0x00, 0x01,
  0x01, 0x00, 0x00, 0x00, 0x14, 0x00, 0x00, 0x00, 0x03, 0x00, 0x00, 0x00,
  0x13, 0x00, 0x00, 0x00, 0x07, 0x00, 0x00, 0x00, 0x06, 0x00, 0x00, 0x00,
  0x00, 0x00, 0x0a, 0x00, 0x10, 0x00, 0x0c, 0x00, 0x08, 0x00, 0x04, 0x00,
  0x0a, 0x00, 0x00, 0x00, 0x0c, 0x00, 0x00, 0x00, 0x10, 0x00, 0x00, 0x00,
  0x05, 0x00, 0x00, 0x00, 0x01, 0x00, 0x00, 0x00, 0x13, 0x00, 0x00, 0x00,
  0x02, 0x00, 0x00, 0x00, 0x0f, 0x00, 0x00, 0x00, 0x12, 0x00, 0x00, 0x00,
  0xbe, 0xfe, 0xff, 0xff, 0x1c, 0x00, 0x00, 0x00, 0x00, 0x00, 0x00, 0x3b,
  0x1c, 0x00, 0x00, 0x00, 0x20, 0x00, 0x00, 0x00, 0x04, 0x00, 0x00, 0x00,
  0x00, 0x00, 0x06, 0x00, 0x08, 0x00, 0x04, 0x00, 0x06, 0x00, 0x00, 0x00,
  0x02, 0x00, 0x00, 0x00, 0x01, 0x00, 0x00, 0x00, 0x12, 0x00, 0x00, 0x00,
  0x02, 0x00, 0x00, 0x00, 0x11, 0x00, 0x00, 0x00, 0x03, 0x00, 0x00, 0x00,
  0xfa, 0xfe, 0xff, 0xff, 0x24, 0x00, 0x00, 0x00, 0x00, 0x00, 0x00, 0x20,
  0x24, 0x00, 0x00, 0x00, 0x28, 0x00, 0x00, 0x00, 0x03, 0x00, 0x00, 0x00,
  0x00, 0x00, 0x0e, 0x00, 0x08, 0x00, 0x00, 0x00, 0x00, 0x00, 0x00, 0x00,
  0x00, 0x00, 0x04, 0x00, 0x0e, 0x00, 0x00, 0x00, 0x01, 0x00, 0x00, 0x00,
  0x01, 0x00, 0x00, 0x00, 0x11, 0x00, 0x00, 0x00, 0x04, 0x00, 0x00, 0x00,
  0x10, 0x00, 0x00, 0x00, 0x01, 0x00, 0x00, 0x00, 0x02, 0x00, 0x00, 0x00,
  0x02, 0x00, 0x00, 0x00, 0x46, 0xff, 0xff, 0xff, 0x1c, 0x00, 0x00, 0x00,
  0x00, 0x00, 0x00, 0x37, 0x1c, 0x00, 0x00, 0x00, 0x20, 0x00, 0x00, 0x00,
  0x02, 0x00, 0x00, 0x00, 0x00, 0x00, 0x06, 0x00, 0x08, 0x00, 0x07, 0x00,
  0x06, 0x00, 0x00, 0x00, 0x00, 0x00, 0x00, 0x02, 0x01, 0x00, 0x00, 0x00,
  0x10, 0x00, 0x00, 0x00, 0x01, 0x00, 0x00, 0x00, 0x0f, 0x00, 0x00, 0x00,
  0x7e, 0xff, 0xff, 0xff, 0x14, 0x00, 0x00, 0x00, 0x00, 0x00, 0x00, 0x05,
  0x24, 0x00, 0x00, 0x00, 0x28, 0x00, 0x00, 0x00, 0x01, 0x00, 0x00, 0x00,
  0x6e, 0xff, 0xff, 0xff, 0x02, 0x00, 0x00, 0x00, 0x02, 0x00, 0x00, 0x00,
  0x02, 0x00, 0x00, 0x00, 0x02, 0x00, 0x00, 0x00, 0x00, 0x00, 0x00, 0x01,
  0x01, 0x00, 0x00, 0x00, 0x0f, 0x00, 0x00, 0x00, 0x01, 0x00, 0x00, 0x00,
  0x0e, 0x00, 0x00, 0x00, 0x5e, 0xff, 0xff, 0xff, 0x10, 0x00, 0x00, 0x00,
  0x00, 0x00, 0x00, 0x01, 0x1c, 0x00, 0x00, 0x00, 0x20, 0x00, 0x00, 0x00,
  0x50, 0xff, 0xff, 0xff, 0x00, 0x00, 0x00, 0x01, 0x01, 0x00, 0x00, 0x00,
  0x01, 0x00, 0x00, 0x00, 0x00, 0x00, 0x00, 0x01, 0x01, 0x00, 0x00, 0x00,
  0x0e, 0x00, 0x00, 0x00, 0x03, 0x00, 0x00, 0x00, 0x0d, 0x00, 0x00, 0x00,
  0x09, 0x00, 0x00, 0x00, 0x08, 0x00, 0x00, 0x00, 0x00, 0x00, 0x0e, 0x00,
  0x1a, 0x00, 0x14, 0x00, 0x10, 0x00, 0x0c, 0x00, 0x0b, 0x00, 0x04, 0x00,
  0x0e, 0x00, 0x00, 0x00, 0x24, 0x00, 0x00, 0x00, 0x00, 0x00, 0x00, 0x05,
  0x34, 0x00, 0x00, 0x00, 0x38, 0x00, 0x00, 0x00, 0x01, 0x00, 0x00, 0x00,
  0x00, 0x00, 0x0e, 0x00, 0x18, 0x00, 0x17, 0x00, 0x10, 0x00, 0x0c, 0x00,
  0x08, 0x00, 0x04, 0x00, 0x0e, 0x00, 0x00, 0x00, 0x02, 0x00, 0x00, 0x00,
  0x02, 0x00, 0x00, 0x00, 0x02, 0x00, 0x00, 0x00, 0x02, 0x00, 0x00, 0x00,
  0x00, 0x00, 0x00, 0x01, 0x01, 0x00, 0x00, 0x00, 0x0d, 0x00, 0x00, 0x00,
  0x01, 0x00, 0x00, 0x00, 0x0c, 0x00, 0x00, 0x00, 0x00, 0x00, 0x0e, 0x00,
  0x14, 0x00, 0x00, 0x00, 0x10, 0x00, 0x0c, 0x00, 0x0b, 0x00, 0x04, 0x00,
  0x0e, 0x00, 0x00, 0x00, 0x1c, 0x00, 0x00, 0x00, 0x00, 0x00, 0x00, 0x01,
  0x28, 0x00, 0x00, 0x00, 0x2c, 0x00, 0x00, 0x00, 0x0c, 0x00, 0x14, 0x00,
  0x13, 0x00, 0x0c, 0x00, 0x08, 0x00, 0x07, 0x00, 0x0c, 0x00, 0x00, 0x00,
  0x00, 0x00, 0x00, 0x01, 0x01, 0x00, 0x00, 0x00, 0x01, 0x00, 0x00, 0x00,
